#include "magic_wand_model_data.h"

// We need to keep the data array aligned on some architectures.
#ifdef __has_attribute
#define HAVE_ATTRIBUTE(x) __has_attribute(x)
#else
#define HAVE_ATTRIBUTE(x) 0
#endif
#if HAVE_ATTRIBUTE(aligned) || (defined(__GNUC__) && !defined(__clang__))
#define DATA_ALIGN_ATTRIBUTE __attribute__((aligned(4)))
#else
#define DATA_ALIGN_ATTRIBUTE
#endif
const unsigned char g_magic_wand_model_data[] DATA_ALIGN_ATTRIBUTE = {
  0x1c, 0x00, 0x00, 0x00, 0x54, 0x46, 0x4c, 0x33, 0x14, 0x00, 0x20, 0x00,
  0x04, 0x00, 0x08, 0x00, 0x0c, 0x00, 0x10, 0x00, 0x14, 0x00, 0x00, 0x00,
  0x18, 0x00, 0x1c, 0x00, 0x14, 0x00, 0x00, 0x00, 0x03, 0x00, 0x00, 0x00,
  0x18, 0x00, 0x00, 0x00, 0x2c, 0x00, 0x00, 0x00, 0xd8, 0x00, 0x00, 0x00,
  0x2c, 0x00, 0x00, 0x00, 0x80, 0x00, 0x00, 0x00, 0x78, 0x00, 0x00, 0x00,
  0x05, 0x00, 0x00, 0x00, 0x28, 0x07, 0x00, 0x00, 0x44, 0x06, 0x00, 0x00,
  0xbc, 0x03, 0x00, 0x00, 0xf8, 0x02, 0x00, 0x00, 0xac, 0x01, 0x00, 0x00,
  0x01, 0x00, 0x00, 0x00, 0xd0, 0x00, 0x00, 0x00, 0x14, 0x00, 0x00, 0x00,
  0x98, 0x32, 0x00, 0x00, 0x94, 0x32, 0x00, 0x00, 0x8c, 0x31, 0x00, 0x00,
  0xd8, 0x30, 0x00, 0x00, 0x30, 0x30, 0x00, 0x00, 0xbc, 0x2f, 0x00, 0x00,
  0x50, 0x2f, 0x00, 0x00, 0x00, 0x13, 0x00, 0x00, 0xec, 0x11, 0x00, 0x00,
  0x10, 0x10, 0x00, 0x00, 0xb4, 0x07, 0x00, 0x00, 0x6c, 0x32, 0x00, 0x00,
  0x68, 0x32, 0x00, 0x00, 0x64, 0x32, 0x00, 0x00, 0x60, 0x32, 0x00, 0x00,
  0x5c, 0x32, 0x00, 0x00, 0x58, 0x32, 0x00, 0x00, 0x54, 0x32, 0x00, 0x00,
  0x50, 0x32, 0x00, 0x00, 0x3c, 0x00, 0x00, 0x00, 0x00, 0x00, 0x00, 0x00,
  0x01, 0x00, 0x00, 0x00, 0x0c, 0x00, 0x00, 0x00, 0x08, 0x00, 0x0c, 0x00,
  0x04, 0x00, 0x08, 0x00, 0x08, 0x00, 0x00, 0x00, 0x08, 0x00, 0x00, 0x00,
  0x13, 0x00, 0x00, 0x00, 0x13, 0x00, 0x00, 0x00, 0x6d, 0x69, 0x6e, 0x5f,
  0x72, 0x75, 0x6e, 0x74, 0x69, 0x6d, 0x65, 0x5f, 0x76, 0x65, 0x72, 0x73,
  0x69, 0x6f, 0x6e, 0x00, 0xfa, 0xce, 0xff, 0xff, 0x04, 0x00, 0x00, 0x00,
  0x10, 0x00, 0x00, 0x00, 0x31, 0x2e, 0x35, 0x2e, 0x30, 0x00, 0x00, 0x00,
  0x00, 0x00, 0x00, 0x00, 0x00, 0x00, 0x00, 0x00, 0x0f, 0x00, 0x00, 0x00,
  0x4d, 0x4c, 0x49, 0x52, 0x20, 0x43, 0x6f, 0x6e, 0x76, 0x65, 0x72, 0x74,
  0x65, 0x64, 0x2e, 0x00, 0x00, 0x00, 0x0e, 0x00, 0x18, 0x00, 0x04, 0x00,
  0x08, 0x00, 0x0c, 0x00, 0x10, 0x00, 0x14, 0x00, 0x0e, 0x00, 0x00, 0x00,
  0x14, 0x00, 0x00, 0x00, 0x5c, 0x00, 0x00, 0x00, 0x60, 0x00, 0x00, 0x00,
  0x64, 0x00, 0x00, 0x00, 0x84, 0x00, 0x00, 0x00, 0x12, 0x00, 0x00, 0x00,
  0x58, 0x31, 0x00, 0x00, 0xe8, 0x30, 0x00, 0x00, 0x44, 0x30, 0x00, 0x00,
  0x9c, 0x2f, 0x00, 0x00, 0xf4, 0x2e, 0x00, 0x00, 0x94, 0x2e, 0x00, 0x00,
  0x2c, 0x2e, 0x00, 0x00, 0xd8, 0x11, 0x00, 0x00, 0xbc, 0x10, 0x00, 0x00,
  0xe0, 0x0e, 0x00, 0x00, 0x0c, 0x06, 0x00, 0x00, 0x28, 0x05, 0x00, 0x00,
  0xe8, 0x03, 0x00, 0x00, 0x3c, 0x03, 0x00, 0x00, 0x98, 0x02, 0x00, 0x00,
  0xd4, 0x01, 0x00, 0x00, 0x10, 0x01, 0x00, 0x00, 0x84, 0x00, 0x00, 0x00,
  0x01, 0x00, 0x00, 0x00, 0x00, 0x00, 0x00, 0x00, 0x01, 0x00, 0x00, 0x00,
  0x11, 0x00, 0x00, 0x00, 0x08, 0x00, 0x00, 0x00, 0x74, 0x05, 0x00, 0x00,
  0x94, 0x04, 0x00, 0x00, 0x78, 0x03, 0x00, 0x00, 0xbc, 0x02, 0x00, 0x00,
  0x30, 0x02, 0x00, 0x00, 0x50, 0x01, 0x00, 0x00, 0xa8, 0x00, 0x00, 0x00,
  0x10, 0x00, 0x00, 0x00, 0x04, 0x00, 0x00, 0x00, 0x6d, 0x61, 0x69, 0x6e,
  0x00, 0x00, 0x00, 0x00, 0x7a, 0xff, 0xff, 0xff, 0x00, 0x00, 0x00, 0x09,
  0x04, 0x00, 0x00, 0x00, 0x1c, 0x00, 0x00, 0x00, 0x10, 0x00, 0x00, 0x00,
  0x04, 0x00, 0x00, 0x00, 0xf6, 0xcf, 0xff, 0xff, 0x00, 0x00, 0x80, 0x3f,
  0x01, 0x00, 0x00, 0x00, 0x11, 0x00, 0x00, 0x00, 0x01, 0x00, 0x00, 0x00,
  0x10, 0x00, 0x00, 0x00, 0xa0, 0xfa, 0xff, 0xff, 0x19, 0x00, 0x00, 0x00,
  0x00, 0x00, 0x00, 0x19, 0x01, 0x00, 0x00, 0x00, 0x84, 0xcf, 0xff, 0xff,
  0x14, 0x00, 0x00, 0x00, 0x12, 0x00, 0x00, 0x00, 0x18, 0x00, 0x00, 0x00,
  0x30, 0x00, 0x00, 0x00, 0x20, 0x00, 0x00, 0x00, 0x02, 0x00, 0x00, 0x00,
  0x01, 0x00, 0x00, 0x00, 0x03, 0x00, 0x00, 0x00, 0x08, 0x00, 0x00, 0x00,
  0x49, 0x64, 0x65, 0x6e, 0x74, 0x69, 0x74, 0x79, 0x00, 0x00, 0x00, 0x00,
  0x02, 0x00, 0x00, 0x00, 0xff, 0xff, 0xff, 0xff, 0x03, 0x00, 0x00, 0x00,
  0x68, 0xd0, 0xff, 0xff, 0x00, 0x00, 0x0e, 0x00, 0x18, 0x00, 0x08, 0x00,
  0x0c, 0x00, 0x10, 0x00, 0x07, 0x00, 0x14, 0x00, 0x0e, 0x00, 0x00, 0x00,
  0x00, 0x00, 0x00, 0x08, 0x03, 0x00, 0x00, 0x00, 0x18, 0x00, 0x00, 0x00,
  0x0c, 0x00, 0x00, 0x00, 0x04, 0x00, 0x00, 0x00, 0x84, 0xcf, 0xff, 0xff,
  0x01, 0x00, 0x00, 0x00, 0x10, 0x00, 0x00, 0x00, 0x03, 0x00, 0x00, 0x00,
  0x0f, 0x00, 0x00, 0x00, 0x07, 0x00, 0x00, 0x00, 0x04, 0x00, 0x00, 0x00,
  0x0c, 0xd0, 0xff, 0xff, 0x14, 0x00, 0x00, 0x00, 0x11, 0x00, 0x00, 0x00,
  0x18, 0x00, 0x00, 0x00, 0x5c, 0x00, 0x00, 0x00, 0x4c, 0x00, 0x00, 0x00,
  0x02, 0x00, 0x00, 0x00, 0x01, 0x00, 0x00, 0x00, 0x03, 0x00, 0x00, 0x00,
  0x34, 0x00, 0x00, 0x00, 0x73, 0x65, 0x71, 0x75, 0x65, 0x6e, 0x74, 0x69,
  0x61, 0x6c, 0x2f, 0x64, 0x65, 0x6e, 0x73, 0x65, 0x5f, 0x31, 0x2f, 0x4d,
  0x61, 0x74, 0x4d, 0x75, 0x6c, 0x3b, 0x73, 0x65, 0x71, 0x75, 0x65, 0x6e,
  0x74, 0x69, 0x61, 0x6c, 0x2f, 0x64, 0x65, 0x6e, 0x73, 0x65, 0x5f, 0x31,
  0x2f, 0x42, 0x69, 0x61, 0x73, 0x41, 0x64, 0x64, 0x00, 0x00, 0x00, 0x00,
  0x02, 0x00, 0x00, 0x00, 0xff, 0xff, 0xff, 0xff, 0x03, 0x00, 0x00, 0x00,
  0x0c, 0xd0, 0xff, 0xff, 0xda, 0xfc, 0xff, 0xff, 0x00, 0x00, 0x00, 0x08,
  0x03, 0x00, 0x00, 0x00, 0x24, 0x00, 0x00, 0x00, 0x18, 0x00, 0x00, 0x00,
  0x0c, 0x00, 0x00, 0x00, 0x00, 0x00, 0x06, 0x00, 0x08, 0x00, 0x07, 0x00,
  0x06, 0x00, 0x00, 0x00, 0x00, 0x00, 0x00, 0x01, 0x01, 0x00, 0x00, 0x00,
  0x0f, 0x00, 0x00, 0x00, 0x03, 0x00, 0x00, 0x00, 0x0e, 0x00, 0x00, 0x00,
  0x06, 0x00, 0x00, 0x00, 0x03, 0x00, 0x00, 0x00, 0xe8, 0xfb, 0xff, 0xff,
  0x09, 0x00, 0x00, 0x00, 0x00, 0x00, 0x00, 0x09, 0x01, 0x00, 0x00, 0x00,
  0xcc, 0xd0, 0xff, 0xff, 0x14, 0x00, 0x00, 0x00, 0x10, 0x00, 0x00, 0x00,
  0x18, 0x00, 0x00, 0x00, 0x6c, 0x00, 0x00, 0x00, 0x5c, 0x00, 0x00, 0x00,
  0x02, 0x00, 0x00, 0x00, 0x01, 0x00, 0x00, 0x00, 0x10, 0x00, 0x00, 0x00,
  0x46, 0x00, 0x00, 0x00, 0x73, 0x65, 0x71, 0x75, 0x65, 0x6e, 0x74, 0x69,
  0x61, 0x6c, 0x2f, 0x64, 0x65, 0x6e, 0x73, 0x65, 0x2f, 0x4d, 0x61, 0x74,
  0x4d, 0x75, 0x6c, 0x3b, 0x73, 0x65, 0x71, 0x75, 0x65, 0x6e, 0x74, 0x69,
  0x61, 0x6c, 0x2f, 0x64, 0x65, 0x6e, 0x73, 0x65, 0x2f, 0x52, 0x65, 0x6c,
  0x75, 0x3b, 0x73, 0x65, 0x71, 0x75, 0x65, 0x6e, 0x74, 0x69, 0x61, 0x6c,
  0x2f, 0x64, 0x65, 0x6e, 0x73, 0x65, 0x2f, 0x42, 0x69, 0x61, 0x73, 0x41,
  0x64, 0x64, 0x00, 0x00, 0x02, 0x00, 0x00, 0x00, 0xff, 0xff, 0xff, 0xff,
  0x10, 0x00, 0x00, 0x00, 0xec, 0xd1, 0xff, 0xff, 0x00, 0x00, 0x0a, 0x00,
  0x10, 0x00, 0x04, 0x00, 0x08, 0x00, 0x0c, 0x00, 0x0a, 0x00, 0x00, 0x00,
  0x02, 0x00, 0x00, 0x00, 0x10, 0x00, 0x00, 0x00, 0x04, 0x00, 0x00, 0x00,
  0x01, 0x00, 0x00, 0x00, 0x0e, 0x00, 0x00, 0x00, 0x02, 0x00, 0x00, 0x00,
  0x0d, 0x00, 0x00, 0x00, 0x05, 0x00, 0x00, 0x00, 0xa8, 0xfc, 0xff, 0xff,
  0x16, 0x00, 0x00, 0x00, 0x00, 0x00, 0x00, 0x16, 0x01, 0x00, 0x00, 0x00,
  0x8c, 0xd1, 0xff, 0xff, 0x14, 0x00, 0x00, 0x00, 0x0f, 0x00, 0x00, 0x00,
  0x18, 0x00, 0x00, 0x00, 0x40, 0x00, 0x00, 0x00, 0x30, 0x00, 0x00, 0x00,
  0x02, 0x00, 0x00, 0x00, 0x01, 0x00, 0x00, 0x00, 0x70, 0x00, 0x00, 0x00,
  0x1a, 0x00, 0x00, 0x00, 0x73, 0x65, 0x71, 0x75, 0x65, 0x6e, 0x74, 0x69,
  0x61, 0x6c, 0x2f, 0x66, 0x6c, 0x61, 0x74, 0x74, 0x65, 0x6e, 0x2f, 0x52,
  0x65, 0x73, 0x68, 0x61, 0x70, 0x65, 0x00, 0x00, 0x02, 0x00, 0x00, 0x00,
  0xff, 0xff, 0xff, 0xff, 0x70, 0x00, 0x00, 0x00, 0x70, 0xd1, 0xff, 0xff,
  0x3e, 0xfe, 0xff, 0xff, 0x00, 0x00, 0x00, 0x05, 0x01, 0x00, 0x00, 0x00,
  0x38, 0x00, 0x00, 0x00, 0x2c, 0x00, 0x00, 0x00, 0x14, 0x00, 0x00, 0x00,
  0x00, 0x00, 0x0e, 0x00, 0x14, 0x00, 0x00, 0x00, 0x10, 0x00, 0x0c, 0x00,
  0x08, 0x00, 0x04, 0x00, 0x0e, 0x00, 0x00, 0x00, 0x03, 0x00, 0x00, 0x00,
  0x01, 0x00, 0x00, 0x00, 0x03, 0x00, 0x00, 0x00, 0x01, 0x00, 0x00, 0x00,
  0x01, 0x00, 0x00, 0x00, 0x0d, 0x00, 0x00, 0x00, 0x01, 0x00, 0x00, 0x00,
  0x0c, 0x00, 0x00, 0x00, 0x2c, 0xd2, 0xff, 0xff, 0x14, 0x00, 0x00, 0x00,
  0x0e, 0x00, 0x00, 0x00, 0x20, 0x00, 0x00, 0x00, 0x58, 0x00, 0x00, 0x00,
  0x40, 0x00, 0x00, 0x00, 0x04, 0x00, 0x00, 0x00, 0x01, 0x00, 0x00, 0x00,
  0x07, 0x00, 0x00, 0x00, 0x01, 0x00, 0x00, 0x00, 0x10, 0x00, 0x00, 0x00,
  0x22, 0x00, 0x00, 0x00, 0x73, 0x65, 0x71, 0x75, 0x65, 0x6e, 0x74, 0x69,
  0x61, 0x6c, 0x2f, 0x6d, 0x61, 0x78, 0x5f, 0x70, 0x6f, 0x6f, 0x6c, 0x69,
  0x6e, 0x67, 0x32, 0x64, 0x5f, 0x31, 0x2f, 0x4d, 0x61, 0x78, 0x50, 0x6f,
  0x6f, 0x6c, 0x00, 0x00, 0x04, 0x00, 0x00, 0x00, 0xff, 0xff, 0xff, 0xff,
  0x07, 0x00, 0x00, 0x00, 0x01, 0x00, 0x00, 0x00, 0x10, 0x00, 0x00, 0x00,
  0x28, 0xd2, 0xff, 0xff, 0x1a, 0xfe, 0xff, 0xff, 0x00, 0x00, 0x00, 0x01,
  0x24, 0x00, 0x00, 0x00, 0x18, 0x00, 0x00, 0x00, 0x04, 0x00, 0x00, 0x00,
  0x0c, 0xfe, 0xff, 0xff, 0x01, 0x00, 0x00, 0x00, 0x01, 0x00, 0x00, 0x00,
  0x00, 0x00, 0x00, 0x01, 0x01, 0x00, 0x00, 0x00, 0x0c, 0x00, 0x00, 0x00,
  0x03, 0x00, 0x00, 0x00, 0x0b, 0x00, 0x00, 0x00, 0x09, 0x00, 0x00, 0x00,
  0x02, 0x00, 0x00, 0x00, 0xd4, 0xd2, 0xff, 0xff, 0x14, 0x00, 0x00, 0x00,
  0x0d, 0x00, 0x00, 0x00, 0x20, 0x00, 0x00, 0x00, 0xb8, 0x00, 0x00, 0x00,
  0xa0, 0x00, 0x00, 0x00, 0x04, 0x00, 0x00, 0x00, 0x01, 0x00, 0x00, 0x00,
  0x15, 0x00, 0x00, 0x00, 0x01, 0x00, 0x00, 0x00, 0x10, 0x00, 0x00, 0x00,
  0x83, 0x00, 0x00, 0x00, 0x73, 0x65, 0x71, 0x75, 0x65, 0x6e, 0x74, 0x69,
  0x61, 0x6c, 0x2f, 0x63, 0x6f, 0x6e, 0x76, 0x32, 0x64, 0x5f, 0x31, 0x2f,
  0x52, 0x65, 0x6c, 0x75, 0x3b, 0x73, 0x65, 0x71, 0x75, 0x65, 0x6e, 0x74,
  0x69, 0x61, 0x6c, 0x2f, 0x63, 0x6f, 0x6e, 0x76, 0x32, 0x64, 0x5f, 0x31,
  0x2f, 0x42, 0x69, 0x61, 0x73, 0x41, 0x64, 0x64, 0x3b, 0x73, 0x65, 0x71,
  0x75, 0x65, 0x6e, 0x74, 0x69, 0x61, 0x6c, 0x2f, 0x63, 0x6f, 0x6e, 0x76,
  0x32, 0x64, 0x5f, 0x31, 0x2f, 0x43, 0x6f, 0x6e, 0x76, 0x32, 0x44, 0x3b,
  0x73, 0x65, 0x71, 0x75, 0x65, 0x6e, 0x74, 0x69, 0x61, 0x6c, 0x2f, 0x63,
  0x6f, 0x6e, 0x76, 0x32, 0x64, 0x5f, 0x31, 0x2f, 0x42, 0x69, 0x61, 0x73,
  0x41, 0x64, 0x64, 0x2f, 0x52, 0x65, 0x61, 0x64, 0x56, 0x61, 0x72, 0x69,
  0x61, 0x62, 0x6c, 0x65, 0x4f, 0x70, 0x2f, 0x72, 0x65, 0x73, 0x6f, 0x75,
  0x72, 0x63, 0x65, 0x00, 0x04, 0x00, 0x00, 0x00, 0xff, 0xff, 0xff, 0xff,
  0x15, 0x00, 0x00, 0x00, 0x01, 0x00, 0x00, 0x00, 0x10, 0x00, 0x00, 0x00,
  0x40, 0xd4, 0xff, 0xff, 0x00, 0x00, 0x0e, 0x00, 0x1a, 0x00, 0x08, 0x00,
  0x0c, 0x00, 0x10, 0x00, 0x07, 0x00, 0x14, 0x00, 0x0e, 0x00, 0x00, 0x00,
  0x00, 0x00, 0x00, 0x05, 0x01, 0x00, 0x00, 0x00, 0x3c, 0x00, 0x00, 0x00,
  0x30, 0x00, 0x00, 0x00, 0x14, 0x00, 0x00, 0x00, 0x00, 0x00, 0x0e, 0x00,
  0x18, 0x00, 0x17, 0x00, 0x10, 0x00, 0x0c, 0x00, 0x08, 0x00, 0x04, 0x00,
  0x0e, 0x00, 0x00, 0x00, 0x03, 0x00, 0x00, 0x00, 0x03, 0x00, 0x00, 0x00,
  0x03, 0x00, 0x00, 0x00, 0x03, 0x00, 0x00, 0x00, 0x00, 0x00, 0x00, 0x01,
  0x01, 0x00, 0x00, 0x00, 0x0b, 0x00, 0x00, 0x00, 0x01, 0x00, 0x00, 0x00,
  0x0a, 0x00, 0x00, 0x00, 0x2c, 0xff, 0xff, 0xff, 0x11, 0x00, 0x00, 0x00,
  0x00, 0x00, 0x00, 0x11, 0x01, 0x00, 0x00, 0x00, 0x10, 0xd4, 0xff, 0xff,
  0x14, 0x00, 0x00, 0x00, 0x0c, 0x00, 0x00, 0x00, 0x20, 0x00, 0x00, 0x00,
  0x58, 0x00, 0x00, 0x00, 0x40, 0x00, 0x00, 0x00, 0x04, 0x00, 0x00, 0x00,
  0x01, 0x00, 0x00, 0x00, 0x15, 0x00, 0x00, 0x00, 0x01, 0x00, 0x00, 0x00,
  0x08, 0x00, 0x00, 0x00, 0x20, 0x00, 0x00, 0x00, 0x73, 0x65, 0x71, 0x75,
  0x65, 0x6e, 0x74, 0x69, 0x61, 0x6c, 0x2f, 0x6d, 0x61, 0x78, 0x5f, 0x70,
  0x6f, 0x6f, 0x6c, 0x69, 0x6e, 0x67, 0x32, 0x64, 0x2f, 0x4d, 0x61, 0x78,
  0x50, 0x6f, 0x6f, 0x6c, 0x00, 0x00, 0x00, 0x00, 0x04, 0x00, 0x00, 0x00,
  0xff, 0xff, 0xff, 0xff, 0x15, 0x00, 0x00, 0x00, 0x01, 0x00, 0x00, 0x00,
  0x08, 0x00, 0x00, 0x00, 0x1c, 0xd5, 0xff, 0xff, 0x00, 0x00, 0x0e, 0x00,
  0x14, 0x00, 0x00, 0x00, 0x08, 0x00, 0x0c, 0x00, 0x07, 0x00, 0x10, 0x00,
  0x0e, 0x00, 0x00, 0x00, 0x00, 0x00, 0x00, 0x01, 0x30, 0x00, 0x00, 0x00,
  0x24, 0x00, 0x00, 0x00, 0x10, 0x00, 0x00, 0x00, 0x0c, 0x00, 0x10, 0x00,
  0x00, 0x00, 0x04, 0x00, 0x08, 0x00, 0x0f, 0x00, 0x0c, 0x00, 0x00, 0x00,
  0x01, 0x00, 0x00, 0x00, 0x01, 0x00, 0x00, 0x00, 0x00, 0x00, 0x00, 0x01,
  0x01, 0x00, 0x00, 0x00, 0x0a, 0x00, 0x00, 0x00, 0x03, 0x00, 0x00, 0x00,
  0x00, 0x00, 0x00, 0x00, 0x08, 0x00, 0x00, 0x00, 0x01, 0x00, 0x00, 0x00,
  0x0c, 0x00, 0x10, 0x00, 0x0b, 0x00, 0x00, 0x00, 0x0c, 0x00, 0x04, 0x00,
  0x0c, 0x00, 0x00, 0x00, 0x03, 0x00, 0x00, 0x00, 0x00, 0x00, 0x00, 0x03,
  0x01, 0x00, 0x00, 0x00, 0xf0, 0xd4, 0xff, 0xff, 0x14, 0x00, 0x00, 0x00,
  0x0b, 0x00, 0x00, 0x00, 0x20, 0x00, 0x00, 0x00, 0xb0, 0x00, 0x00, 0x00,
  0x98, 0x00, 0x00, 0x00, 0x04, 0x00, 0x00, 0x00, 0x01, 0x00, 0x00, 0x00,
  0x40, 0x00, 0x00, 0x00, 0x03, 0x00, 0x00, 0x00, 0x08, 0x00, 0x00, 0x00,
  0x7b, 0x00, 0x00, 0x00, 0x73, 0x65, 0x71, 0x75, 0x65, 0x6e, 0x74, 0x69,
  0x61, 0x6c, 0x2f, 0x63, 0x6f, 0x6e, 0x76, 0x32, 0x64, 0x2f, 0x52, 0x65,
  0x6c, 0x75, 0x3b, 0x73, 0x65, 0x71, 0x75, 0x65, 0x6e, 0x74, 0x69, 0x61,
  0x6c, 0x2f, 0x63, 0x6f, 0x6e, 0x76, 0x32, 0x64, 0x2f, 0x42, 0x69, 0x61,
  0x73, 0x41, 0x64, 0x64, 0x3b, 0x73, 0x65, 0x71, 0x75, 0x65, 0x6e, 0x74,
  0x69, 0x61, 0x6c, 0x2f, 0x63, 0x6f, 0x6e, 0x76, 0x32, 0x64, 0x2f, 0x43,
  0x6f, 0x6e, 0x76, 0x32, 0x44, 0x3b, 0x73, 0x65, 0x71, 0x75, 0x65, 0x6e,
  0x74, 0x69, 0x61, 0x6c, 0x2f, 0x63, 0x6f, 0x6e, 0x76, 0x32, 0x64, 0x2f,
  0x42, 0x69, 0x61, 0x73, 0x41, 0x64, 0x64, 0x2f, 0x52, 0x65, 0x61, 0x64,
  0x56, 0x61, 0x72, 0x69, 0x61, 0x62, 0x6c, 0x65, 0x4f, 0x70, 0x2f, 0x72,
  0x65, 0x73, 0x6f, 0x75, 0x72, 0x63, 0x65, 0x00, 0x04, 0x00, 0x00, 0x00,
  0xff, 0xff, 0xff, 0xff, 0x40, 0x00, 0x00, 0x00, 0x03, 0x00, 0x00, 0x00,
  0x08, 0x00, 0x00, 0x00, 0x44, 0xd5, 0xff, 0xff, 0x4e, 0xd6, 0xff, 0xff,
  0x04, 0x00, 0x00, 0x00, 0x00, 0x08, 0x00, 0x00, 0x94, 0x6d, 0xd3, 0xbe,
  0x80, 0xbe, 0xbd, 0xbe, 0x76, 0x2e, 0x11, 0xbf, 0xd4, 0xf5, 0x38, 0xbf,
  0x58, 0x91, 0x36, 0xbe, 0x17, 0x91, 0xb5, 0xbd, 0xdb, 0x49, 0xa3, 0x3c,
  0xcc, 0x84, 0xdd, 0xbe, 0xe0, 0xf3, 0x47, 0xbd, 0x5b, 0xec, 0x66, 0x3c,
  0x31, 0x6a, 0xdd, 0x3c, 0x8f, 0x77, 0x8a, 0xbe, 0xb4, 0xe1, 0x18, 0xbe,
  0xbc, 0xf1, 0x00, 0x3f, 0xd4, 0xb9, 0xd6, 0xbe, 0x97, 0xed, 0x8c, 0xbe,
  0x6f, 0xd4, 0x8c, 0x3e, 0xf2, 0xfd, 0x80, 0xbc, 0x88, 0x43, 0x93, 0xbd,
  0x4c, 0xc5, 0x15, 0xbf, 0x64, 0xfe, 0x9b, 0xbe, 0x2c, 0xb1, 0x6f, 0x3d,
  0x1f, 0x35, 0x44, 0xbe, 0x3b, 0x4c, 0x5e, 0xbd, 0xb2, 0x92, 0x08, 0xbe,
  0xc6, 0x3a, 0x0a, 0x3d, 0x02, 0xeb, 0x3c, 0xbd, 0xdc, 0x71, 0x31, 0xbe,
  0xec, 0x5f, 0x89, 0xbe, 0x52, 0x62, 0xe9, 0xbc, 0x8a, 0x84, 0x49, 0x3e,
  0x61, 0x48, 0x6a, 0x3e, 0xc7, 0xea, 0x4e, 0x3d, 0xa0, 0xd8, 0x0f, 0xbe,
  0xb6, 0xbc, 0x89, 0x3a, 0xbf, 0x03, 0x63, 0xbe, 0x91, 0x7c, 0x96, 0x3e,
  0xf0, 0xed, 0x57, 0x3e, 0x9a, 0x7e, 0x53, 0x3e, 0xa1, 0x0a, 0xb3, 0x3e,
  0x3a, 0x4c, 0x50, 0xbe, 0x72, 0x29, 0xec, 0xbd, 0x71, 0x1c, 0x7e, 0xbb,
  0xc8, 0xe8, 0x47, 0x3e, 0x6e, 0x6f, 0x51, 0x3b, 0x96, 0x84, 0x02, 0x3e,
  0x9e, 0x72, 0x69, 0x3e, 0x93, 0x47, 0x7c, 0xbd, 0x1b, 0x97, 0x64, 0xbe,
  0xeb, 0xf6, 0xc5, 0xbd, 0xf5, 0xae, 0xf0, 0xbd, 0xeb, 0xd7, 0xc9, 0x3e,
  0x80, 0x30, 0x3e, 0xbe, 0x7d, 0xb8, 0xe5, 0x3b, 0x1d, 0x78, 0x1b, 0xbe,
  0xee, 0x30, 0x9c, 0xbe, 0x60, 0x07, 0x25, 0xbe, 0x7f, 0xb1, 0xcc, 0xbc,
  0xfe, 0x59, 0xff, 0xbd, 0xd0, 0x3b, 0xfa, 0x3e, 0x97, 0xd2, 0x31, 0xbe,
  0xdd, 0xa7, 0x78, 0x3d, 0x90, 0xf2, 0x2b, 0xbe, 0x41, 0x91, 0x01, 0xbf,
  0x0c, 0x70, 0x13, 0x3e, 0xdc, 0xc3, 0xf6, 0x3c, 0x15, 0x4e, 0xd0, 0xbe,
  0xfd, 0x6e, 0x39, 0xbe, 0xd1, 0x54, 0x5b, 0xbf, 0x31, 0x31, 0xd6, 0xbe,
  0x60, 0x2f, 0x11, 0x3e, 0x9e, 0xa5, 0x9c, 0xbd, 0x80, 0x2c, 0x58, 0x3d,
  0x78, 0xee, 0x82, 0x3d, 0x3f, 0xc3, 0x31, 0xbf, 0x5a, 0x29, 0x25, 0x3d,
  0xa8, 0x65, 0x6e, 0xbf, 0x52, 0x35, 0x27, 0xbf, 0xf6, 0xf4, 0xba, 0xbe,
  0x77, 0x70, 0xf7, 0xbe, 0xc3, 0x91, 0xa3, 0xbe, 0x9d, 0x3d, 0x67, 0xbe,
  0xad, 0x7f, 0x52, 0xbf, 0xab, 0x34, 0xeb, 0x3e, 0x6d, 0x24, 0x4a, 0xbe,
  0xf3, 0xa6, 0x78, 0xbf, 0x30, 0x4f, 0x9a, 0xbd, 0x60, 0x6c, 0x55, 0xbf,
  0x45, 0x38, 0xb7, 0xbf, 0x47, 0x00, 0x2a, 0xbd, 0xbd, 0x65, 0x9e, 0xbf,
  0x7d, 0xbb, 0xee, 0xbe, 0x64, 0xa2, 0x99, 0x3e, 0xa5, 0x61, 0xb7, 0xbf,
  0xc5, 0x52, 0x0c, 0xbb, 0xb0, 0xb1, 0x50, 0xbf, 0x26, 0x0b, 0xeb, 0x3d,
  0xd6, 0xe4, 0xa6, 0x3e, 0x15, 0x6f, 0x4e, 0xbe, 0x22, 0xb1, 0x5f, 0x3d,
  0x24, 0x1c, 0x91, 0xbc, 0xb5, 0x85, 0x22, 0xbe, 0x17, 0x5c, 0xc0, 0x3e,
  0xe5, 0x1f, 0xce, 0x3d, 0xfe, 0x57, 0x08, 0x3b, 0xc1, 0x0e, 0x3a, 0xbd,
  0x75, 0x70, 0xa0, 0xbe, 0xd8, 0x57, 0xaf, 0xbd, 0xa4, 0xd8, 0x5b, 0x3b,
  0x42, 0x37, 0x14, 0xbe, 0x5b, 0x89, 0x1b, 0xbe, 0xcd, 0x9d, 0xcd, 0x3e,
  0x52, 0x4d, 0x09, 0xbb, 0xc8, 0xa0, 0x80, 0xbd, 0x76, 0xee, 0x6c, 0xbe,
  0x51, 0x22, 0xfe, 0xbc, 0x14, 0x1d, 0x0a, 0x3e, 0x26, 0x68, 0x86, 0xbd,
  0x74, 0x8f, 0x88, 0xbe, 0x51, 0x8e, 0xf9, 0x3d, 0x5f, 0x7e, 0xb0, 0xbd,
  0x39, 0x35, 0xa2, 0xbd, 0xed, 0x31, 0x60, 0xbe, 0xa0, 0xfa, 0xc4, 0x3d,
  0xa3, 0x8e, 0x36, 0x3e, 0x21, 0x05, 0x91, 0xbd, 0xdc, 0x39, 0x92, 0xbe,
  0x53, 0x77, 0xd6, 0xbe, 0xf5, 0xeb, 0x24, 0xbe, 0x94, 0x19, 0xf1, 0xbe,
  0x9b, 0xfe, 0xdb, 0xbd, 0xb7, 0x20, 0xbf, 0x3d, 0x2f, 0x01, 0xa9, 0x3b,
  0xfd, 0x10, 0x9c, 0x3e, 0x7c, 0x56, 0x94, 0x3d, 0xef, 0xb2, 0x6a, 0xbc,
  0x0a, 0x66, 0x3a, 0x3e, 0xc2, 0x20, 0x00, 0xbf, 0xeb, 0xee, 0xb7, 0xbd,
  0x24, 0x99, 0x85, 0xbc, 0x45, 0x28, 0xfb, 0xbc, 0x13, 0x3b, 0x11, 0xbe,
  0x06, 0x09, 0x2f, 0xbe, 0xaa, 0xa6, 0x44, 0xbd, 0x94, 0x39, 0xc1, 0x3e,
  0x08, 0x9f, 0xf6, 0xbe, 0xe2, 0x40, 0xec, 0xbd, 0x6c, 0xcd, 0x8d, 0x3e,
  0x9e, 0x3a, 0x29, 0xbc, 0x5a, 0x14, 0xc1, 0x3e, 0x2c, 0x6b, 0xc8, 0xbd,
  0x52, 0x46, 0x95, 0x3e, 0x37, 0x8f, 0xb3, 0x3e, 0xa9, 0x1d, 0xea, 0xbe,
  0x95, 0xf0, 0x7c, 0xbe, 0xb5, 0x1f, 0xce, 0x3d, 0x41, 0xf0, 0x6d, 0xbe,
  0xa8, 0xab, 0xca, 0x3d, 0x82, 0x39, 0x57, 0x3d, 0x52, 0x9e, 0x37, 0x3e,
  0xe7, 0x17, 0x91, 0xbe, 0xe3, 0x4f, 0x4a, 0xbe, 0x25, 0x0c, 0xb5, 0xbe,
  0x01, 0x0c, 0x6c, 0xbe, 0xce, 0xf6, 0x1f, 0x3c, 0xd8, 0xd9, 0x7a, 0x3c,
  0xb4, 0xf8, 0x99, 0xbe, 0xdb, 0xcb, 0x8e, 0xbe, 0xa0, 0xcb, 0x3c, 0xbe,
  0xe3, 0x56, 0x98, 0xbe, 0x1f, 0x0d, 0x8c, 0xbe, 0xec, 0xb5, 0x23, 0xbe,
  0x5b, 0x06, 0x15, 0xbe, 0x66, 0xd2, 0x0a, 0xbe, 0x7e, 0xab, 0xab, 0xbe,
  0xf6, 0x2b, 0xa8, 0xbe, 0x5c, 0x4f, 0x2b, 0xbd, 0x9e, 0x18, 0x78, 0xbe,
  0xb3, 0xe9, 0xcb, 0xbe, 0x03, 0x11, 0x9a, 0xbd, 0xa8, 0x91, 0x50, 0xbe,
  0x1f, 0xb0, 0xed, 0xbd, 0x09, 0xfa, 0xa6, 0xbd, 0xe3, 0x7a, 0xae, 0xbe,
  0xe7, 0xb1, 0x64, 0x3d, 0x98, 0x12, 0x17, 0xbd, 0x7d, 0xab, 0xb8, 0xbe,
  0xfc, 0x5f, 0xce, 0xbd, 0x49, 0x64, 0x57, 0xbe, 0x79, 0x00, 0x01, 0x3e,
  0xf6, 0x65, 0x97, 0xbe, 0x73, 0x1a, 0xa7, 0x3d, 0xa2, 0x92, 0xdf, 0x3d,
  0x24, 0x25, 0x30, 0x3b, 0x0f, 0x89, 0x66, 0xbd, 0x43, 0x6e, 0x61, 0x3d,
  0x88, 0x72, 0xed, 0x3e, 0x5c, 0xec, 0x16, 0x3c, 0x18, 0xde, 0xcc, 0xbc,
  0x39, 0xf5, 0xe6, 0xbd, 0x80, 0xa6, 0x9a, 0xbc, 0x84, 0x5f, 0x1f, 0x3b,
  0xbd, 0x33, 0xc8, 0x3d, 0xca, 0x49, 0x86, 0x3d, 0x0b, 0xad, 0x3a, 0x3d,
  0x03, 0x67, 0x84, 0xbc, 0x84, 0x34, 0x2f, 0x3d, 0x7a, 0x20, 0x27, 0x3f,
  0x44, 0x48, 0x95, 0xbd, 0xc3, 0x79, 0x2c, 0xbd, 0x88, 0x4e, 0xce, 0xbd,
  0xe6, 0x82, 0x69, 0x3e, 0x89, 0x2c, 0x77, 0xbe, 0x68, 0xee, 0xc3, 0xbc,
  0x9f, 0x99, 0xe3, 0xbe, 0xc7, 0xde, 0x5b, 0xbd, 0x15, 0x79, 0x34, 0xbd,
  0x2b, 0xc1, 0x11, 0xbc, 0x6c, 0xe0, 0x94, 0xbd, 0xcd, 0xa7, 0x79, 0x3e,
  0xfe, 0xe1, 0x9b, 0xbe, 0x76, 0x5c, 0x53, 0xbb, 0x2a, 0x32, 0xce, 0xbe,
  0x71, 0x45, 0xd2, 0xbe, 0xc9, 0xde, 0xeb, 0x3c, 0xcf, 0x73, 0x12, 0xbd,
  0xe6, 0x3e, 0x94, 0xbe, 0xf2, 0x30, 0xc4, 0x3d, 0x82, 0xda, 0xaa, 0xbd,
  0x97, 0xfa, 0x70, 0xbd, 0x26, 0x2e, 0xd1, 0xbc, 0x9c, 0x97, 0x93, 0x3e,
  0x27, 0x65, 0x8a, 0xbd, 0x76, 0x87, 0xdd, 0xbb, 0x49, 0x9b, 0xc7, 0xbe,
  0x01, 0xae, 0xf7, 0xbd, 0xd3, 0x0b, 0x7f, 0xbe, 0xc0, 0x76, 0xdf, 0xbc,
  0x69, 0xdd, 0x11, 0x3f, 0xeb, 0x16, 0x59, 0x3f, 0xe4, 0x19, 0xb2, 0x3d,
  0x1c, 0x2b, 0xf2, 0x3b, 0xfe, 0x8a, 0xde, 0xbe, 0x6c, 0x47, 0x92, 0x3a,
  0x1b, 0x06, 0x22, 0x3e, 0x47, 0xe0, 0x34, 0x3d, 0x1b, 0xd8, 0x67, 0x39,
  0xb8, 0xfd, 0x2b, 0xbf, 0xbf, 0x78, 0xf8, 0xbd, 0x44, 0x5c, 0x49, 0x3b,
  0xea, 0x4e, 0xe8, 0xbe, 0xef, 0xbe, 0xb6, 0xbc, 0x25, 0xaf, 0x22, 0xbe,
  0xff, 0x7f, 0x89, 0x3d, 0xf9, 0x2c, 0x42, 0xbe, 0xa2, 0x62, 0xb5, 0xbe,
  0x4c, 0x78, 0xb0, 0xbd, 0x69, 0xad, 0xb7, 0xbb, 0xce, 0xdc, 0x17, 0xbe,
  0x53, 0xbf, 0xbf, 0x3d, 0x51, 0xdb, 0x05, 0xbe, 0x9e, 0xc4, 0x1f, 0xbe,
  0x49, 0x7a, 0x3d, 0xbe, 0xa0, 0x3e, 0xf7, 0x3d, 0x22, 0x5e, 0x8d, 0xbd,
  0x38, 0x32, 0x48, 0x3a, 0xa1, 0x3b, 0x0d, 0xbe, 0x4c, 0x79, 0xda, 0xbd,
  0x9e, 0xd6, 0xbc, 0xbd, 0x6b, 0x71, 0xd7, 0xbd, 0x90, 0xcb, 0x70, 0x3f,
  0xb4, 0xae, 0x4f, 0xbe, 0xf9, 0x8f, 0x4d, 0x3e, 0x60, 0x4c, 0x17, 0xbb,
  0x4e, 0x19, 0x4b, 0xbe, 0x81, 0x95, 0x49, 0xbd, 0x79, 0x15, 0x81, 0xbd,
  0x0f, 0x05, 0x1d, 0xbe, 0x20, 0x90, 0x3e, 0xbe, 0xbc, 0xad, 0x54, 0x3f,
  0xa5, 0x60, 0x9d, 0x3c, 0x21, 0x3c, 0xa1, 0x3b, 0x4a, 0xe1, 0xdb, 0xbd,
  0x6e, 0xdf, 0x92, 0xbc, 0x7f, 0x23, 0x99, 0xba, 0x58, 0x49, 0x91, 0xbc,
  0xa4, 0xcb, 0x51, 0xbe, 0x73, 0x8a, 0x8b, 0x3e, 0xa1, 0x7d, 0x3c, 0x3e,
  0xef, 0xbb, 0xc9, 0xbb, 0xb5, 0xb2, 0x24, 0x3e, 0x78, 0x15, 0xea, 0xbd,
  0x17, 0xa1, 0xb4, 0xbf, 0x71, 0x0e, 0x0d, 0xbf, 0x2e, 0x6a, 0x77, 0x3e,
  0x4b, 0xb4, 0xc6, 0x3d, 0x74, 0x78, 0x87, 0xbd, 0x40, 0x6e, 0xbf, 0xbc,
  0x1d, 0x7e, 0xff, 0x3d, 0xec, 0xbf, 0xab, 0xbe, 0x70, 0x0f, 0xcf, 0xbf,
  0x4e, 0xad, 0x89, 0xbe, 0x9d, 0x6a, 0x83, 0x3d, 0xad, 0x6d, 0xfd, 0x3c,
  0x8b, 0x31, 0x76, 0x3d, 0xbb, 0xb0, 0x35, 0x3e, 0x64, 0x40, 0x0a, 0xbf,
  0x5d, 0xa1, 0xed, 0xbd, 0xb9, 0x70, 0xbd, 0xbf, 0x63, 0x2a, 0x4c, 0xbf,
  0xf1, 0x9a, 0xe7, 0xbe, 0xb0, 0x71, 0x15, 0xbf, 0x7a, 0x33, 0x0b, 0x3e,
  0xf5, 0xc7, 0x6a, 0xbe, 0xde, 0x81, 0x58, 0x3e, 0xb1, 0x01, 0x15, 0xbd,
  0x21, 0x21, 0x5c, 0xbf, 0x33, 0x57, 0x26, 0xbe, 0x84, 0x60, 0x23, 0xbe,
  0xae, 0xa9, 0x34, 0xbe, 0x0b, 0x8a, 0x87, 0xbe, 0xf8, 0xbe, 0x1f, 0xbc,
  0x1f, 0xab, 0x10, 0xbf, 0x5c, 0x87, 0xdf, 0xbe, 0x3b, 0xfd, 0x90, 0xbe,
  0xe4, 0xc3, 0x14, 0xbf, 0x91, 0x42, 0xb9, 0xbe, 0x95, 0x11, 0x7c, 0xbe,
  0xd2, 0x07, 0xba, 0xba, 0xe7, 0xf0, 0x04, 0xbe, 0xaf, 0xda, 0x3b, 0xbe,
  0xfc, 0x2a, 0x43, 0x3e, 0x45, 0x18, 0xd9, 0xbe, 0x47, 0x41, 0x3e, 0x3a,
  0x60, 0x57, 0xcf, 0xbc, 0xe8, 0x0e, 0xe5, 0x3e, 0xda, 0x3b, 0x57, 0xbe,
  0xc4, 0xa9, 0x07, 0xbd, 0xc9, 0x46, 0x49, 0x3d, 0x66, 0x2e, 0x83, 0x3e,
  0x7b, 0xa2, 0x18, 0x3c, 0x78, 0x36, 0x15, 0x3d, 0x7e, 0x0b, 0x82, 0xbd,
  0x7c, 0x62, 0x81, 0xbd, 0x68, 0x17, 0x66, 0xbe, 0x23, 0x16, 0x0c, 0xbd,
  0x5e, 0x6d, 0x4f, 0x3b, 0x98, 0xb1, 0xb6, 0x3e, 0x45, 0x3e, 0x10, 0x3d,
  0x39, 0x10, 0xa0, 0xbd, 0x3b, 0x33, 0x7f, 0x3d, 0xcd, 0x8e, 0xc1, 0x3b,
  0xc5, 0x8a, 0x3b, 0x3d, 0x51, 0xcd, 0x19, 0xbe, 0xa0, 0xad, 0x99, 0x3e,
  0x9e, 0xdb, 0xd9, 0x3e, 0x42, 0xce, 0xb7, 0x3e, 0xdd, 0xef, 0x70, 0xbe,
  0x9c, 0x6c, 0x2f, 0x3d, 0x34, 0x25, 0xc9, 0x3d, 0xa5, 0xe6, 0xef, 0xbd,
  0xe7, 0x85, 0x05, 0xbe, 0x3a, 0x63, 0x7f, 0xbd, 0x75, 0xe3, 0xc6, 0x3d,
  0x0e, 0xc5, 0x51, 0xbd, 0xab, 0x4d, 0x4b, 0xbe, 0x26, 0xe7, 0x00, 0x3e,
  0x70, 0xfa, 0x8c, 0x3d, 0xe7, 0x37, 0xea, 0xbd, 0xf8, 0x93, 0x24, 0xbd,
  0xc7, 0x75, 0xe8, 0xbd, 0xa1, 0x7f, 0x91, 0x3e, 0xb3, 0x27, 0x46, 0xbe,
  0x7c, 0x92, 0xc1, 0xbd, 0x7b, 0xdd, 0x58, 0xbe, 0xee, 0x2e, 0x8d, 0xbb,
  0x3b, 0x3c, 0xc3, 0xbd, 0x19, 0xc1, 0x93, 0x3d, 0xc7, 0xab, 0x5a, 0x3e,
  0xc9, 0x60, 0x4d, 0x3e, 0x7e, 0x2a, 0xa2, 0xbe, 0x5c, 0x0c, 0xe2, 0xbd,
  0xe0, 0x4e, 0x2f, 0xbe, 0x92, 0xe8, 0xe7, 0xbd, 0x4d, 0xdf, 0x96, 0xbc,
  0x1d, 0xf1, 0xda, 0xbc, 0x3b, 0x75, 0xfb, 0x3d, 0x77, 0x1b, 0x7b, 0x3f,
  0x83, 0x17, 0x48, 0x3d, 0xa4, 0x2c, 0x10, 0x3d, 0x78, 0xa6, 0xbe, 0xbd,
  0x80, 0xaf, 0xbe, 0x3e, 0x3e, 0x81, 0xcf, 0xbd, 0xaf, 0x06, 0x5c, 0xbd,
  0xb7, 0xbe, 0x0d, 0xbe, 0x57, 0x26, 0xb1, 0x3d, 0x4d, 0xc0, 0xe7, 0xbe,
  0x05, 0xe1, 0x10, 0xbe, 0x36, 0x57, 0xdb, 0xbe, 0xdd, 0xa1, 0x90, 0x3e,
  0xe1, 0x9a, 0xd4, 0x3c, 0xe6, 0xa7, 0x8b, 0xbd, 0xf3, 0xc9, 0xb5, 0xbd,
  0x15, 0xfa, 0x14, 0x3e, 0x97, 0x63, 0x60, 0xbe, 0xf1, 0xe8, 0xc5, 0xbd,
  0xe1, 0xb3, 0xcf, 0xbc, 0xab, 0x71, 0xd7, 0xbe, 0x88, 0x37, 0x03, 0x3e,
  0x29, 0x88, 0xdd, 0xbd, 0x26, 0x24, 0xf5, 0xbd, 0x27, 0xfd, 0x28, 0x3e,
  0x6d, 0x27, 0x09, 0xbe, 0x25, 0xa4, 0x3c, 0xbd, 0x27, 0x89, 0xf0, 0x3d,
  0xa0, 0xae, 0x00, 0xbd, 0x66, 0x9b, 0x8d, 0xbe, 0x09, 0xdb, 0xd0, 0xbe,
  0xf9, 0xcc, 0x21, 0xbe, 0xa7, 0xd8, 0xe8, 0xbc, 0xf6, 0x70, 0x8d, 0x3b,
  0xec, 0xc0, 0x55, 0xbe, 0x2e, 0x41, 0xcf, 0xbb, 0x4e, 0x66, 0x90, 0xbe,
  0xff, 0x77, 0x13, 0x3e, 0x0c, 0x3d, 0x2c, 0xbe, 0x90, 0x0c, 0xbc, 0x3c,
  0x4e, 0x3c, 0x31, 0xbe, 0xb7, 0x9c, 0xc1, 0xbd, 0x52, 0xa7, 0x56, 0xbe,
  0xd6, 0x4a, 0x08, 0xbd, 0x0c, 0xde, 0xe1, 0xbc, 0x6a, 0xcb, 0x86, 0x3e,
  0xb4, 0x1e, 0x27, 0xbe, 0x03, 0x7f, 0xdd, 0x3d, 0xe8, 0xaa, 0x9a, 0x3d,
  0x57, 0x2d, 0x8f, 0xbd, 0xff, 0xe1, 0x9e, 0xbe, 0xfe, 0x36, 0x8d, 0xbd,
  0xd3, 0x8d, 0xc5, 0x3e, 0xfd, 0x36, 0xe6, 0x3e, 0xe2, 0x9c, 0x73, 0xbe,
  0xe7, 0x67, 0x0c, 0x3e, 0xea, 0x69, 0x6b, 0x3d, 0xb3, 0xcb, 0xb7, 0x3c,
  0x79, 0x26, 0x40, 0xbe, 0x2d, 0xb2, 0x72, 0xbe, 0xe2, 0x75, 0x93, 0xbd,
  0x05, 0x1c, 0x0d, 0xbe, 0x37, 0x39, 0xa6, 0xbd, 0xbc, 0x8c, 0x80, 0x3b,
  0xc3, 0xa8, 0x22, 0x3f, 0x70, 0x63, 0x2c, 0xbe, 0x4f, 0x0f, 0xc5, 0xbc,
  0x6c, 0x17, 0x28, 0xbe, 0xe6, 0x90, 0x87, 0xbd, 0xfa, 0x93, 0x98, 0xbd,
  0x5b, 0xd7, 0xe7, 0x3d, 0xdc, 0x01, 0x8f, 0x3e, 0xe9, 0x23, 0x10, 0xbe,
  0x66, 0xc9, 0xe9, 0xbe, 0x55, 0x15, 0xc5, 0x3e, 0x8e, 0xf8, 0xc4, 0xbe,
  0xc1, 0xc2, 0xdb, 0xbe, 0x95, 0x9f, 0x8b, 0xbe, 0xef, 0xb9, 0x1f, 0xba,
  0x11, 0x3b, 0xa2, 0xbd, 0xc5, 0xe1, 0xd9, 0x3c, 0x96, 0xf0, 0x49, 0xbe,
  0xb9, 0x7f, 0x08, 0x3e, 0x09, 0x62, 0xa8, 0xbc, 0x7d, 0xb7, 0x32, 0xbf,
  0x3f, 0xe3, 0xb9, 0xbf, 0xee, 0x16, 0x56, 0xbb, 0xf4, 0xaf, 0x97, 0xbd,
  0x1e, 0xbc, 0xb6, 0xbd, 0xfb, 0x9c, 0x3e, 0x3d, 0xa2, 0x11, 0xf4, 0x3c,
  0x20, 0x89, 0xd7, 0x3e, 0x52, 0x05, 0x32, 0xbf, 0x8a, 0x44, 0x46, 0xbe,
  0xed, 0x08, 0xa7, 0xbd, 0x20, 0x5c, 0x8e, 0xbc, 0x78, 0x46, 0x4f, 0xbe,
  0x20, 0x19, 0xc9, 0xbd, 0x4c, 0x1f, 0x5d, 0xbe, 0x75, 0x50, 0x86, 0xbd,
  0x2f, 0xe6, 0x07, 0x3e, 0xf1, 0xa1, 0xf8, 0xbc, 0x61, 0x25, 0x76, 0xbd,
  0xbc, 0x61, 0xd8, 0xbd, 0x8f, 0x66, 0xa1, 0x3d, 0x03, 0x64, 0x57, 0x3e,
  0xff, 0x80, 0x82, 0xbd, 0xa7, 0x78, 0xe2, 0x3d, 0xf8, 0xba, 0x99, 0x3c,
  0xb2, 0x8f, 0x8d, 0xbe, 0xab, 0x6e, 0x86, 0xbd, 0x34, 0xbe, 0x5c, 0xbb,
  0x36, 0x56, 0xe1, 0x3e, 0xef, 0x0b, 0xd2, 0xbd, 0xfc, 0xad, 0x27, 0xbe,
  0x29, 0x05, 0x7d, 0xbd, 0x8d, 0xc9, 0x91, 0xbc, 0xcb, 0x0e, 0x41, 0x3c,
  0x13, 0xfb, 0x88, 0x3d, 0x66, 0x4b, 0xe8, 0x3d, 0xc8, 0x03, 0xc5, 0xbd,
  0x88, 0xda, 0x16, 0xbe, 0x18, 0x82, 0x08, 0xbd, 0x6d, 0x43, 0x12, 0x3d,
  0x84, 0x03, 0x9f, 0xbe, 0x26, 0xde, 0xff, 0xff, 0x10, 0x00, 0x00, 0x00,
  0x0a, 0x00, 0x00, 0x00, 0x1c, 0x00, 0x00, 0x00, 0x38, 0x00, 0x00, 0x00,
  0x04, 0x00, 0x00, 0x00, 0x10, 0x00, 0x00, 0x00, 0x04, 0x00, 0x00, 0x00,
  0x01, 0x00, 0x00, 0x00, 0x08, 0x00, 0x00, 0x00, 0x1a, 0x00, 0x00, 0x00,
  0x73, 0x65, 0x71, 0x75, 0x65, 0x6e, 0x74, 0x69, 0x61, 0x6c, 0x2f, 0x63,
  0x6f, 0x6e, 0x76, 0x32, 0x64, 0x5f, 0x31, 0x2f, 0x43, 0x6f, 0x6e, 0x76,
  0x32, 0x44, 0x00, 0x00, 0x9c, 0xdd, 0xff, 0xff, 0xa6, 0xde, 0xff, 0xff,
  0x04, 0x00, 0x00, 0x00, 0x80, 0x01, 0x00, 0x00, 0xd3, 0x77, 0xad, 0xbe,
  0xc7, 0xb0, 0x95, 0xbe, 0xb2, 0x62, 0x4f, 0x3d, 0x4a, 0x10, 0xe5, 0xbd,
  0x0c, 0xe6, 0x2f, 0xbe, 0xed, 0x92, 0x9f, 0x3d, 0x9f, 0x5f, 0x59, 0x3e,
  0x48, 0xfa, 0x51, 0xbe, 0xa4, 0xae, 0xac, 0xbe, 0xc4, 0x98, 0x21, 0xbf,
  0x90, 0x15, 0xfb, 0xbd, 0xdb, 0x80, 0xa0, 0xbe, 0xfc, 0x0d, 0x17, 0x3d,
  0x9f, 0x34, 0xcd, 0x3d, 0x63, 0x64, 0xdc, 0x3b, 0xfd, 0xf3, 0xb5, 0x3d,
  0x83, 0xfe, 0xe2, 0x3d, 0xad, 0xf2, 0x47, 0xbc, 0xed, 0xd9, 0x6f, 0x3d,
  0x22, 0x10, 0x48, 0x3d, 0x28, 0x60, 0xa8, 0xbc, 0x45, 0xb5, 0x08, 0x3c,
  0xbd, 0xc6, 0x05, 0x3d, 0x1b, 0x73, 0x77, 0xbc, 0x5c, 0x76, 0x5e, 0xbd,
  0x42, 0x6a, 0x37, 0xbd, 0xc9, 0xe0, 0xc8, 0xbd, 0xe0, 0x31, 0x43, 0xbe,
  0xe8, 0xa7, 0x8d, 0x3c, 0xd9, 0x6c, 0xad, 0x3d, 0xa6, 0xbb, 0x87, 0xbe,
  0xca, 0x69, 0xb6, 0xbd, 0xf2, 0x05, 0x3c, 0xbe, 0x92, 0xe5, 0x81, 0xbe,
  0xc6, 0xac, 0x75, 0x3c, 0x5a, 0xc5, 0xd4, 0x3d, 0xcc, 0x1e, 0xe9, 0xbe,
  0x40, 0xaa, 0x9b, 0x3c, 0x70, 0xa1, 0x83, 0x3d, 0x70, 0x21, 0xcc, 0xbe,
  0x03, 0xeb, 0x41, 0x3d, 0x65, 0x75, 0x92, 0xbd, 0x01, 0x67, 0x81, 0x3d,
  0x09, 0xfd, 0xad, 0xbd, 0x95, 0x7a, 0x41, 0xbd, 0xf0, 0xc8, 0x38, 0x3f,
  0x2c, 0xd6, 0x9d, 0xbd, 0x5a, 0x26, 0x13, 0x3c, 0xff, 0xbf, 0xe4, 0xbd,
  0xcf, 0x6c, 0x96, 0xbc, 0x74, 0xa5, 0x79, 0x3e, 0xa3, 0xe5, 0xa0, 0xbc,
  0x39, 0xa0, 0x1d, 0xbe, 0xe0, 0x3a, 0x16, 0xbe, 0x62, 0x46, 0xf1, 0x3d,
  0x17, 0x07, 0x47, 0x3d, 0xf3, 0xbc, 0x99, 0xbe, 0x59, 0xf9, 0x9e, 0xbd,
  0xa8, 0xf3, 0x64, 0x3d, 0x36, 0x2e, 0x80, 0xbe, 0x9b, 0xaa, 0x26, 0x3e,
  0xd6, 0xa4, 0x87, 0xbe, 0xd7, 0xb4, 0x82, 0xbe, 0x02, 0x87, 0x03, 0x3e,
  0x21, 0x00, 0xf8, 0x3d, 0x6d, 0xd6, 0x74, 0x3d, 0x73, 0xaa, 0x90, 0x3e,
  0xe0, 0xca, 0x83, 0x3d, 0x10, 0x01, 0x58, 0xbe, 0xe7, 0xc9, 0xc7, 0x3e,
  0x5c, 0xd9, 0x03, 0xbe, 0xf8, 0x7f, 0x89, 0x3d, 0x4a, 0x2e, 0xb7, 0xbc,
  0x20, 0x30, 0x8d, 0x3b, 0xa6, 0x3a, 0xd4, 0xbd, 0x7c, 0x43, 0xe9, 0x3c,
  0x71, 0x8b, 0xe8, 0xbe, 0xf5, 0x37, 0x32, 0x3e, 0xbc, 0xe1, 0xef, 0x3c,
  0x19, 0x45, 0x28, 0x3e, 0x4e, 0xfe, 0x93, 0xbe, 0xd4, 0x4a, 0xac, 0xbd,
  0x5c, 0x69, 0x9d, 0x3e, 0x53, 0xe2, 0x76, 0xbd, 0x29, 0xaf, 0xfc, 0xbd,
  0x15, 0x9b, 0x09, 0x3e, 0x45, 0xd0, 0x0b, 0x3f, 0x18, 0xf5, 0x4e, 0xbc,
  0x6e, 0x29, 0x88, 0xbd, 0xf1, 0x01, 0x7c, 0xbd, 0x81, 0x77, 0x8a, 0x3d,
  0x0b, 0x1e, 0x4b, 0xbe, 0x11, 0x97, 0xf8, 0xbe, 0xf5, 0x63, 0xb1, 0xbb,
  0xb4, 0x6f, 0x27, 0xbd, 0xdc, 0x74, 0x98, 0xbb, 0xfe, 0xdf, 0xff, 0xff,
  0x10, 0x00, 0x00, 0x00, 0x09, 0x00, 0x00, 0x00, 0x1c, 0x00, 0x00, 0x00,
  0x38, 0x00, 0x00, 0x00, 0x04, 0x00, 0x00, 0x00, 0x08, 0x00, 0x00, 0x00,
  0x04, 0x00, 0x00, 0x00, 0x03, 0x00, 0x00, 0x00, 0x01, 0x00, 0x00, 0x00,
  0x18, 0x00, 0x00, 0x00, 0x73, 0x65, 0x71, 0x75, 0x65, 0x6e, 0x74, 0x69,
  0x61, 0x6c, 0x2f, 0x63, 0x6f, 0x6e, 0x76, 0x32, 0x64, 0x2f, 0x43, 0x6f,
  0x6e, 0x76, 0x32, 0x44, 0x00, 0x00, 0x00, 0x00, 0x74, 0xdf, 0xff, 0xff,
  0x7e, 0xe0, 0xff, 0xff, 0x04, 0x00, 0x00, 0x00, 0xc0, 0x00, 0x00, 0x00,
  0xc4, 0xe0, 0xe4, 0x3d, 0xe2, 0xdd, 0x2e, 0x3e, 0xd9, 0x88, 0xe6, 0xbd,
  0xc7, 0xf1, 0x6f, 0x3d, 0x32, 0x42, 0x9e, 0x3d, 0x64, 0xb7, 0x99, 0xbe,
  0x64, 0x83, 0x73, 0x3e, 0xbc, 0xe1, 0xac, 0xbd, 0xbc, 0x22, 0x6b, 0x3e,
  0x9f, 0x4a, 0xfe, 0xbc, 0x5a, 0xe2, 0x88, 0x3e, 0xd3, 0x2f, 0x93, 0xbe,
  0x0a, 0x7f, 0x93, 0x3d, 0x73, 0x63, 0xab, 0x3e, 0x95, 0x3d, 0xcc, 0x3e,
  0xab, 0x99, 0xfc, 0xbb, 0x8b, 0x77, 0x51, 0x3e, 0x91, 0x78, 0xe8, 0x3d,
  0xc4, 0x02, 0x1c, 0xbe, 0x2e, 0x63, 0x15, 0x3e, 0x8b, 0x75, 0x51, 0x3c,
  0x38, 0xca, 0x17, 0x3d, 0x52, 0x51, 0x8f, 0x3e, 0xfa, 0x77, 0x2f, 0xbe,
  0x3f, 0xd3, 0x5f, 0x3e, 0x98, 0x82, 0x49, 0xbc, 0x07, 0x48, 0x83, 0x3d,
  0xae, 0xb4, 0xca, 0xbe, 0x79, 0x7a, 0x32, 0xbd, 0x92, 0x00, 0x2f, 0x3e,
  0x3c, 0xe0, 0x8d, 0x3e, 0xb3, 0x23, 0x05, 0x3e, 0x67, 0x4f, 0x23, 0x3e,
  0xd5, 0x06, 0xb5, 0x3d, 0x79, 0x76, 0xc1, 0xbd, 0xd3, 0x8a, 0xb6, 0x3d,
  0xa4, 0xe6, 0x97, 0x3c, 0x2f, 0x47, 0x99, 0xbe, 0xd1, 0x32, 0x73, 0x3e,
  0xa5, 0xb8, 0x3f, 0xbe, 0xb6, 0xb3, 0x14, 0x3e, 0xd9, 0x20, 0x3e, 0x3d,
  0x2d, 0xf5, 0xe0, 0x3b, 0x4d, 0xf7, 0xb0, 0xbe, 0x00, 0x94, 0x35, 0x3c,
  0xca, 0xa2, 0xb8, 0x3e, 0xf0, 0xcf, 0xd5, 0x3d, 0xf3, 0x88, 0x99, 0x3d,
  0x16, 0xe1, 0xff, 0xff, 0x10, 0x00, 0x00, 0x00, 0x08, 0x00, 0x00, 0x00,
  0x14, 0x00, 0x00, 0x00, 0x30, 0x00, 0x00, 0x00, 0x02, 0x00, 0x00, 0x00,
  0x03, 0x00, 0x00, 0x00, 0x10, 0x00, 0x00, 0x00, 0x19, 0x00, 0x00, 0x00,
  0x73, 0x65, 0x71, 0x75, 0x65, 0x6e, 0x74, 0x69, 0x61, 0x6c, 0x2f, 0x64,
  0x65, 0x6e, 0x73, 0x65, 0x5f, 0x31, 0x2f, 0x4d, 0x61, 0x74, 0x4d, 0x75,
  0x6c, 0x00, 0x00, 0x00, 0x84, 0xe0, 0xff, 0xff, 0x8e, 0xe1, 0xff, 0xff,
  0x04, 0x00, 0x00, 0x00, 0x00, 0x1c, 0x00, 0x00, 0x70, 0x4c, 0x77, 0xbe,
  0x5f, 0x60, 0x96, 0x3e, 0xc8, 0xe4, 0xa5, 0xbd, 0x46, 0xbb, 0x6a, 0xbe,
  0xe3, 0x0a, 0x88, 0xbe, 0x4e, 0x75, 0x26, 0xbe, 0x1c, 0x5f, 0x19, 0x3e,
  0x69, 0xe5, 0xda, 0xbd, 0x3a, 0x50, 0xb4, 0xbd, 0x43, 0xca, 0x11, 0xbe,
  0x31, 0xc5, 0xea, 0x3c, 0x79, 0x0f, 0x5f, 0x3e, 0xb8, 0x1f, 0xa1, 0xbd,
  0xe8, 0x6e, 0x92, 0xbe, 0x84, 0xc7, 0xab, 0xbd, 0xa0, 0x97, 0xb2, 0x3e,
  0xc7, 0x2f, 0xb7, 0xbd, 0x37, 0x5c, 0x66, 0xbe, 0x00, 0xb1, 0xcc, 0x3d,
  0x21, 0x6e, 0x58, 0xbe, 0x8b, 0x79, 0x58, 0xbe, 0xe4, 0x77, 0x10, 0xbe,
  0x05, 0x9b, 0x8e, 0x3d, 0x3c, 0x9d, 0x91, 0xbe, 0x25, 0x2a, 0x9c, 0xbd,
  0x95, 0x6b, 0x01, 0x3d, 0xbb, 0x90, 0x7e, 0x3b, 0xa5, 0x15, 0x0b, 0x3e,
  0x9c, 0xce, 0xa5, 0x3d, 0xab, 0xbe, 0xda, 0xbb, 0x4b, 0xd6, 0x0b, 0x3e,
  0x33, 0x4b, 0x01, 0x3e, 0x0f, 0x5d, 0x96, 0x3a, 0xf9, 0xdd, 0xd9, 0xbe,
  0x20, 0x9a, 0x97, 0xbe, 0x25, 0xda, 0x29, 0xbe, 0x04, 0x2e, 0xd3, 0xbd,
  0x08, 0xf9, 0x07, 0x3e, 0xf0, 0x4c, 0x8a, 0xbe, 0xd6, 0x00, 0xfd, 0xbd,
  0x60, 0xa9, 0x07, 0x3e, 0x88, 0x7a, 0x65, 0xbd, 0x94, 0x91, 0xcb, 0x3d,
  0x49, 0x34, 0x64, 0xbc, 0x3a, 0x4f, 0x1c, 0xbe, 0xe7, 0x1d, 0x00, 0xbe,
  0xd0, 0x1e, 0x81, 0xbd, 0x7d, 0x80, 0x74, 0x3c, 0x21, 0x21, 0x0a, 0x3e,
  0x20, 0x6e, 0x9d, 0xbe, 0x3d, 0x3c, 0x4f, 0xbe, 0x8a, 0x8c, 0xa5, 0xbd,
  0x4e, 0x6d, 0x02, 0xbe, 0xd2, 0x6e, 0xec, 0xbd, 0x32, 0xb3, 0xb6, 0xbd,
  0x5e, 0x42, 0x70, 0x3b, 0x22, 0x20, 0x52, 0x3d, 0x12, 0xa1, 0xae, 0x3d,
  0xbf, 0x7b, 0x8e, 0xbe, 0x03, 0x60, 0xb6, 0x3d, 0x26, 0x5c, 0x21, 0xbe,
  0xf6, 0x52, 0xcb, 0x3c, 0x7f, 0xd0, 0x79, 0xbd, 0x36, 0x48, 0x58, 0xbd,
  0xb2, 0x08, 0x5f, 0x3b, 0x0d, 0x43, 0xad, 0xbe, 0x6f, 0x31, 0x1c, 0xbe,
  0xc8, 0xd8, 0x76, 0xbd, 0xb6, 0xe2, 0x4e, 0xbe, 0x60, 0xf8, 0x89, 0xbe,
  0x19, 0x4a, 0x7f, 0xbd, 0xef, 0x83, 0xbe, 0xbe, 0x65, 0xca, 0x37, 0x3b,
  0x4f, 0x91, 0xe0, 0x3b, 0xcb, 0x7d, 0x4a, 0xbd, 0x62, 0x64, 0x98, 0xbc,
  0x58, 0x4b, 0xd5, 0xbd, 0x3b, 0xbb, 0x10, 0xbd, 0x90, 0x8b, 0xb5, 0x3d,
  0x0f, 0x6c, 0xc3, 0x3d, 0x90, 0x88, 0xcb, 0x3d, 0xa1, 0x87, 0xbb, 0x3e,
  0xb9, 0x3b, 0x1e, 0xbe, 0xc8, 0xe3, 0x37, 0xbe, 0xa3, 0x83, 0x29, 0xbe,
  0xc7, 0xe5, 0xe2, 0xbd, 0xc3, 0xf2, 0xb0, 0x3e, 0xd7, 0x9a, 0xd1, 0xbe,
  0xac, 0x01, 0x8e, 0xbe, 0x67, 0x7c, 0x93, 0x3c, 0x9b, 0x41, 0x47, 0xbc,
  0xa1, 0x95, 0x0e, 0xbe, 0x88, 0x32, 0x97, 0xbc, 0x92, 0xd3, 0x1b, 0xbd,
  0x41, 0x5c, 0x8b, 0xbd, 0x24, 0x59, 0x98, 0x3b, 0x3a, 0x6f, 0x89, 0xbe,
  0xf9, 0x78, 0x19, 0xbe, 0x20, 0x66, 0xf8, 0x3d, 0x22, 0x36, 0xf8, 0xbd,
  0x2e, 0x31, 0x2b, 0xbd, 0xc3, 0x7f, 0x19, 0xbb, 0xe6, 0xb1, 0x21, 0xbd,
  0x51, 0xa3, 0x8b, 0xbe, 0x9c, 0x4e, 0x7f, 0xbe, 0xd3, 0x1e, 0xd9, 0xbe,
  0xee, 0xee, 0x28, 0xbe, 0x40, 0xfb, 0xd8, 0xbd, 0x56, 0xe2, 0x70, 0x3e,
  0x9d, 0x31, 0xca, 0x3d, 0xd5, 0x05, 0x42, 0x3d, 0xf8, 0xc8, 0x0c, 0xbd,
  0xc2, 0xed, 0x10, 0xbc, 0x50, 0xc6, 0xe5, 0xbe, 0x00, 0xb7, 0x2a, 0x3d,
  0xfa, 0x57, 0x23, 0x3d, 0xf9, 0xfc, 0x8b, 0xbe, 0xf0, 0xd3, 0x2c, 0xbd,
  0x11, 0x1d, 0x3b, 0x3e, 0xe3, 0x94, 0xa8, 0xbc, 0x73, 0xe1, 0xe3, 0xbe,
  0x72, 0x58, 0x74, 0xbd, 0x03, 0x50, 0x8e, 0xbd, 0xa0, 0xf3, 0xb2, 0xbe,
  0x28, 0xff, 0xcf, 0xbe, 0x1c, 0xf7, 0xa9, 0xbe, 0x85, 0x51, 0x7d, 0xbc,
  0x71, 0x49, 0xb9, 0xbd, 0xad, 0xef, 0xe5, 0x3c, 0x58, 0xc6, 0x6b, 0xbe,
  0xa1, 0x7a, 0xb4, 0x3d, 0xe8, 0x0e, 0x90, 0xbc, 0xf9, 0x37, 0x88, 0xbc,
  0xfb, 0x73, 0x1e, 0x3d, 0x41, 0xad, 0x4e, 0x3d, 0x95, 0xdc, 0x66, 0x3e,
  0x88, 0x9e, 0x2a, 0xbd, 0x39, 0xc7, 0x90, 0xbc, 0xc3, 0x32, 0xf8, 0xbd,
  0xd7, 0xb0, 0xd0, 0xbe, 0xd4, 0xe0, 0x9c, 0xbd, 0xa8, 0x8e, 0x28, 0xbe,
  0x8e, 0x2f, 0xee, 0xbc, 0x33, 0x2b, 0xab, 0x3d, 0xeb, 0x84, 0x9a, 0xbd,
  0x96, 0x1c, 0x07, 0xbf, 0xe1, 0x30, 0x02, 0x3e, 0x2d, 0xb9, 0x59, 0x3d,
  0x55, 0x26, 0x39, 0xbe, 0xf0, 0xdf, 0xa4, 0xbd, 0x38, 0x49, 0x60, 0xbe,
  0x64, 0xab, 0x04, 0xbe, 0xb0, 0x1a, 0x0c, 0xbe, 0xd2, 0x51, 0x6b, 0x3a,
  0xb9, 0xb6, 0x06, 0xbe, 0x8d, 0x88, 0x09, 0xbe, 0xf5, 0x78, 0x18, 0xbe,
  0x58, 0x14, 0xb0, 0xbe, 0x0a, 0xef, 0x09, 0x3c, 0x69, 0xd6, 0x43, 0xbe,
  0xe5, 0xc5, 0x5c, 0x3d, 0x1a, 0x7e, 0x80, 0xbe, 0x61, 0xdb, 0x94, 0x3e,
  0x99, 0x20, 0x06, 0x3b, 0x5e, 0x9d, 0x4d, 0xbe, 0xfe, 0x0e, 0xf8, 0xbd,
  0x9a, 0xe5, 0xa3, 0xbd, 0x60, 0xc8, 0xbb, 0x3d, 0x31, 0xa2, 0x6b, 0xbd,
  0xfa, 0xf2, 0x02, 0x3c, 0xc9, 0xf4, 0x8f, 0xbd, 0x91, 0x5f, 0x0d, 0xbe,
  0xbf, 0x49, 0x0c, 0xbe, 0x7c, 0x25, 0x99, 0xbe, 0xc1, 0x83, 0xfa, 0x3b,
  0xcd, 0x06, 0x39, 0xbe, 0xc9, 0x0e, 0x93, 0xbc, 0x73, 0x48, 0x61, 0xbe,
  0x46, 0xcf, 0x7a, 0x3d, 0x0a, 0x23, 0x02, 0x3d, 0x87, 0xf7, 0xa7, 0xbe,
  0xa6, 0x49, 0x36, 0xbe, 0xbc, 0x64, 0x94, 0xbd, 0xb5, 0xd7, 0xab, 0x3c,
  0x5a, 0x1d, 0xdf, 0xbd, 0x2e, 0x72, 0x8f, 0xbd, 0x60, 0x7b, 0x37, 0x3e,
  0x50, 0xa1, 0xa0, 0xbe, 0x94, 0x3e, 0xbe, 0xbc, 0x6b, 0x75, 0x3b, 0xbe,
  0x69, 0xd3, 0xa4, 0xbb, 0x6c, 0xbe, 0xed, 0x3d, 0xa9, 0x2d, 0xb9, 0x39,
  0x53, 0x96, 0x4e, 0xbe, 0x41, 0x49, 0xe4, 0x3d, 0x77, 0xee, 0x67, 0x3c,
  0x5d, 0x45, 0x2e, 0xbe, 0x37, 0x56, 0x5d, 0xbe, 0x26, 0x65, 0x23, 0x3e,
  0x7a, 0xb1, 0x13, 0x3e, 0x66, 0x5e, 0x45, 0x3e, 0xfa, 0xb0, 0xd2, 0xbc,
  0xf6, 0xf3, 0xee, 0x3c, 0x70, 0x5b, 0x85, 0xbe, 0xb9, 0xd5, 0xf4, 0x3c,
  0x43, 0xa3, 0x23, 0xbc, 0xdf, 0x6e, 0xc5, 0x3c, 0x0c, 0xe4, 0x27, 0x3e,
  0xc3, 0xeb, 0x91, 0x3c, 0xda, 0x8a, 0xb8, 0xbd, 0xab, 0xb7, 0x29, 0xbf,
  0xca, 0x89, 0x9c, 0xbb, 0xbc, 0x4f, 0x92, 0xbe, 0xba, 0xdf, 0xef, 0xbc,
  0x72, 0x07, 0xbd, 0x3d, 0xca, 0xd4, 0x83, 0x3e, 0x1e, 0xc2, 0x89, 0x3e,
  0x41, 0x07, 0xd7, 0xbe, 0x1d, 0x89, 0x1c, 0xbb, 0x14, 0xf3, 0xcb, 0xbd,
  0x22, 0xc7, 0x54, 0x3e, 0x18, 0x42, 0x22, 0xbc, 0xd6, 0x19, 0xa0, 0xbc,
  0x7d, 0x82, 0x94, 0xbe, 0x2d, 0x02, 0x2d, 0x3f, 0x35, 0xbc, 0x68, 0xbe,
  0x1a, 0xfe, 0x8d, 0xbe, 0xe7, 0xdd, 0x7c, 0xbe, 0xb0, 0x4e, 0x0d, 0x3e,
  0x9e, 0x6c, 0x56, 0x3e, 0x12, 0xf2, 0xac, 0xbe, 0x79, 0x44, 0xf5, 0x3d,
  0x62, 0xef, 0x52, 0xbe, 0xc5, 0x7b, 0xae, 0x3e, 0x23, 0x5f, 0x2b, 0xbe,
  0x21, 0xcb, 0x8d, 0xbe, 0x87, 0x10, 0x62, 0xbe, 0x8f, 0x8a, 0x0e, 0x3b,
  0x2c, 0x5c, 0xbc, 0x3d, 0xdf, 0xd5, 0x12, 0xbe, 0xee, 0x6a, 0x18, 0x3e,
  0xf1, 0xa0, 0x0e, 0xbd, 0x7b, 0xd2, 0xb6, 0xbe, 0xf8, 0x32, 0xcc, 0xbe,
  0xf9, 0xde, 0x43, 0x3d, 0xf9, 0x4c, 0x69, 0x3e, 0x0d, 0x90, 0x8f, 0xbe,
  0x37, 0xd3, 0x00, 0xbe, 0xb0, 0xc3, 0xa1, 0x3d, 0x23, 0x12, 0xe8, 0x3e,
  0xb8, 0x3b, 0x98, 0x3e, 0xeb, 0x40, 0x19, 0x3d, 0xe5, 0x6a, 0x79, 0xbd,
  0x44, 0xfb, 0x62, 0x3e, 0xb0, 0xea, 0xbd, 0x39, 0xc3, 0xb7, 0x02, 0xbd,
  0x29, 0xf3, 0x31, 0x3e, 0x4d, 0xec, 0xff, 0x3c, 0x07, 0xb6, 0xca, 0xbe,
  0xa3, 0x06, 0x99, 0xbe, 0xa2, 0x94, 0x36, 0x3e, 0x7c, 0xdc, 0x2c, 0x3e,
  0x09, 0x37, 0x58, 0x3d, 0xf0, 0xf0, 0x5a, 0xbc, 0x24, 0x63, 0x59, 0x3e,
  0x70, 0x0f, 0x0d, 0x3e, 0x57, 0xec, 0x9d, 0xbc, 0x39, 0x08, 0x26, 0xbd,
  0xf8, 0xaf, 0xc1, 0x3e, 0xd6, 0x1d, 0xf9, 0x3d, 0xc4, 0x68, 0xd9, 0x3c,
  0xbd, 0x8c, 0x23, 0x3d, 0xf0, 0xa6, 0x10, 0x3e, 0x97, 0x9c, 0x11, 0xbc,
  0x98, 0x34, 0x03, 0xbf, 0x1a, 0x28, 0xa4, 0xbc, 0xa5, 0xf8, 0xc6, 0x3d,
  0xd9, 0x80, 0xdb, 0x3d, 0x98, 0xb8, 0x2d, 0x3f, 0x25, 0x55, 0x33, 0x3f,
  0xbc, 0xce, 0xb8, 0x3e, 0x59, 0x09, 0x84, 0x3e, 0xad, 0x72, 0x75, 0x3e,
  0x66, 0x59, 0xe1, 0x3d, 0x49, 0xad, 0x42, 0x3f, 0xdb, 0xbc, 0x36, 0x3e,
  0x28, 0xbe, 0x94, 0x3d, 0x03, 0x5a, 0x5c, 0x3e, 0x31, 0xe4, 0x95, 0xbd,
  0xf5, 0xe2, 0xbc, 0x3c, 0xee, 0xe1, 0xbd, 0xbe, 0xd0, 0x9e, 0xed, 0xbc,
  0xa1, 0x36, 0xf0, 0x3d, 0x5f, 0xfd, 0x89, 0x3e, 0x07, 0x87, 0x00, 0x3e,
  0x4b, 0x83, 0x92, 0xbc, 0x73, 0x28, 0x02, 0x3e, 0x82, 0x56, 0x24, 0x3e,
  0xbc, 0xab, 0x7d, 0x3e, 0xcc, 0x6e, 0x59, 0xbd, 0x91, 0x75, 0xb4, 0x3e,
  0x91, 0x2f, 0x20, 0x3e, 0xc6, 0xb4, 0x65, 0x3d, 0x8d, 0xe7, 0x29, 0x3e,
  0x44, 0xcc, 0x59, 0xbc, 0xf2, 0x71, 0xae, 0xbd, 0x22, 0x5b, 0xc8, 0xbe,
  0xed, 0x60, 0x88, 0xbe, 0x88, 0x68, 0xb8, 0x3d, 0x70, 0x8a, 0xcf, 0xbd,
  0xe1, 0x13, 0x89, 0xbe, 0xb6, 0xb6, 0x50, 0x3e, 0x92, 0x1d, 0x6e, 0x3d,
  0xb6, 0x14, 0xd0, 0x3e, 0x39, 0x8a, 0xb5, 0x3d, 0x9a, 0x6b, 0xa2, 0xbe,
  0xbf, 0x01, 0xa2, 0x3e, 0xb4, 0x05, 0xe0, 0x3d, 0x26, 0x43, 0xd9, 0xbd,
  0x47, 0x90, 0x90, 0x3e, 0x80, 0x94, 0xa4, 0x3e, 0xbf, 0x9e, 0x9b, 0xbd,
  0xc6, 0x8a, 0x3d, 0x3f, 0x84, 0x6a, 0x7a, 0xbd, 0x20, 0xa1, 0x4c, 0xbd,
  0x94, 0x10, 0x39, 0xbf, 0x73, 0x3e, 0x3f, 0xbe, 0xda, 0x73, 0x62, 0x3e,
  0xda, 0x2f, 0x9a, 0xbd, 0xb6, 0x1d, 0x3a, 0x3e, 0x94, 0x48, 0x8e, 0x3d,
  0xf9, 0xad, 0x5d, 0xbe, 0x9d, 0x63, 0xd3, 0xbe, 0x65, 0x08, 0x3d, 0x3e,
  0x31, 0xf8, 0x41, 0xbe, 0xad, 0xba, 0x08, 0xbd, 0x65, 0x3a, 0x02, 0xbf,
  0xda, 0xc3, 0xc6, 0x3d, 0x49, 0x81, 0xa8, 0xbe, 0x84, 0x88, 0x11, 0xbe,
  0x43, 0xce, 0x08, 0xbe, 0x69, 0x06, 0xdd, 0xbd, 0x41, 0xe4, 0xec, 0x3d,
  0x03, 0x62, 0x4c, 0xbd, 0xf9, 0x98, 0x94, 0xbd, 0x38, 0xfc, 0x31, 0xbe,
  0x67, 0xba, 0x07, 0x3d, 0x03, 0xd9, 0x35, 0x3d, 0x27, 0x45, 0x03, 0x3e,
  0xa3, 0x7a, 0x19, 0xbe, 0x7c, 0xad, 0xb0, 0xbe, 0x68, 0xc5, 0xc3, 0x3d,
  0xe2, 0x9b, 0x8f, 0x3d, 0x78, 0xb3, 0xb4, 0xbd, 0x85, 0x0d, 0x4d, 0xbe,
  0x19, 0xf4, 0x32, 0xbe, 0x89, 0xe0, 0x0b, 0xbe, 0xd3, 0xbc, 0x3f, 0xbe,
  0x1a, 0xc1, 0x13, 0x3e, 0xee, 0x10, 0xd9, 0xbe, 0xdd, 0xca, 0x33, 0xbd,
  0x21, 0xfd, 0x03, 0xbe, 0x1b, 0xb0, 0xd6, 0x3d, 0x73, 0x5c, 0x7e, 0xbc,
  0x37, 0x8c, 0x90, 0x3d, 0x86, 0x02, 0x04, 0x3d, 0x80, 0xf6, 0x84, 0xbd,
  0x4f, 0xb8, 0x8d, 0xbc, 0x4c, 0xfd, 0x8c, 0x3d, 0xf1, 0x75, 0x2f, 0xbe,
  0x6a, 0x53, 0xf1, 0xbc, 0xdc, 0xa6, 0x88, 0x3c, 0x55, 0xbc, 0x0b, 0xbe,
  0xd3, 0x9d, 0x12, 0xbe, 0xaf, 0x41, 0x82, 0xbe, 0x0a, 0xdd, 0xc5, 0xbd,
  0x0c, 0x88, 0xfe, 0x3b, 0x8f, 0xaf, 0x15, 0x3e, 0x99, 0xbd, 0xaf, 0x3b,
  0x0b, 0xc8, 0x40, 0x3a, 0xd1, 0xc5, 0x80, 0xbc, 0x26, 0x66, 0x3a, 0xbe,
  0xff, 0x33, 0x3c, 0xbe, 0xd8, 0xda, 0x8c, 0xbd, 0x36, 0xd2, 0xdd, 0x3d,
  0x28, 0x36, 0x18, 0xbe, 0x42, 0x65, 0x29, 0xbd, 0x82, 0x43, 0x31, 0x3a,
  0x65, 0x49, 0x04, 0xbe, 0x7f, 0xe1, 0x23, 0xbe, 0x3e, 0xb5, 0xa0, 0xbe,
  0x76, 0xbf, 0x3c, 0x3d, 0x31, 0xaa, 0x4b, 0xbe, 0x42, 0x70, 0xe6, 0x3d,
  0xd5, 0xc7, 0x65, 0x3b, 0x67, 0x12, 0x80, 0xbd, 0xc6, 0xe7, 0x1a, 0xbe,
  0x0a, 0xc7, 0x82, 0xbe, 0x2e, 0x0a, 0x7a, 0xbe, 0x9c, 0xa9, 0x8f, 0xbd,
  0xae, 0x35, 0x14, 0x3d, 0xc9, 0x9f, 0xd9, 0xbd, 0xf3, 0x29, 0xe4, 0x3d,
  0x3d, 0x4f, 0x45, 0x3c, 0x11, 0x86, 0x3b, 0xbd, 0x7b, 0x3e, 0xf6, 0xbd,
  0x1e, 0xd6, 0x06, 0xbe, 0x29, 0x33, 0x55, 0xbe, 0xba, 0x99, 0x62, 0xbe,
  0x44, 0x66, 0x52, 0x3c, 0xd9, 0xe5, 0x0c, 0x3e, 0x07, 0xb4, 0x2a, 0xbd,
  0xf0, 0x4d, 0x2d, 0xbe, 0xac, 0x56, 0x78, 0xbe, 0x1a, 0xa5, 0x56, 0xbd,
  0x10, 0x1c, 0x10, 0xbe, 0x5b, 0xef, 0x16, 0x3d, 0x8e, 0x5d, 0x4f, 0x3c,
  0x04, 0x52, 0x8d, 0x3e, 0x67, 0xde, 0x76, 0xbe, 0xe2, 0xcd, 0xd3, 0xbd,
  0x7c, 0x4c, 0xa6, 0xbd, 0x92, 0xaa, 0xb3, 0x3e, 0x9e, 0xba, 0xf0, 0xbe,
  0x24, 0x0d, 0x1e, 0xbe, 0xcc, 0x8f, 0x22, 0x3e, 0x66, 0x49, 0x39, 0x3d,
  0xee, 0xad, 0xbf, 0xbc, 0xef, 0x46, 0x2b, 0x3e, 0x9e, 0x60, 0xb7, 0xbe,
  0xd4, 0xb2, 0xe7, 0x3b, 0xbb, 0x6a, 0xff, 0xbd, 0xdb, 0x1b, 0x52, 0xbe,
  0x1c, 0x19, 0x68, 0x3d, 0x51, 0x53, 0x74, 0xbd, 0x5b, 0xea, 0x28, 0xbe,
  0x46, 0x74, 0x8b, 0x3d, 0xaf, 0x63, 0xa1, 0xbd, 0xeb, 0x92, 0x9b, 0x3d,
  0xce, 0x5c, 0x09, 0xbe, 0x5f, 0x09, 0x66, 0x3c, 0xb9, 0x03, 0x92, 0xbd,
  0x1e, 0xa4, 0x11, 0x3b, 0xe3, 0x9d, 0x0a, 0x3d, 0x13, 0xf9, 0xb9, 0x3d,
  0x93, 0x7a, 0x7f, 0xbe, 0x7b, 0x56, 0x39, 0x3e, 0x3b, 0x3a, 0x97, 0x3d,
  0xb0, 0xf8, 0xbc, 0xbe, 0xe1, 0x88, 0x54, 0xbe, 0x24, 0xc5, 0x1c, 0x3f,
  0x11, 0xc7, 0xc2, 0x3e, 0x54, 0x39, 0xe1, 0xbd, 0x2e, 0x66, 0x1c, 0x40,
  0x9a, 0x7e, 0xd5, 0x3c, 0xcd, 0xf2, 0x44, 0x3e, 0x5a, 0x54, 0xa2, 0x3e,
  0x33, 0x28, 0x62, 0xbe, 0x75, 0xba, 0x6c, 0xbe, 0x6f, 0x2b, 0x83, 0xbd,
  0xa8, 0x45, 0x05, 0xbd, 0x0a, 0x9d, 0x76, 0x3d, 0xa0, 0xbe, 0xc1, 0xbe,
  0x19, 0x90, 0x90, 0xbe, 0xc7, 0x0b, 0xe4, 0xbd, 0x9e, 0x97, 0xf9, 0xbc,
  0x38, 0x84, 0x8d, 0x3e, 0xd8, 0x8b, 0xd7, 0x3d, 0x51, 0xc9, 0x4d, 0xbd,
  0x36, 0x44, 0xcf, 0x3f, 0x86, 0xdf, 0x97, 0x3e, 0x73, 0x1d, 0x82, 0x3e,
  0x77, 0x8b, 0xe4, 0xbd, 0x88, 0xa1, 0x8d, 0xbe, 0x30, 0xea, 0x52, 0xbd,
  0xf4, 0xc2, 0x25, 0xbe, 0xb9, 0x1e, 0x8d, 0x3d, 0xa1, 0x79, 0x8e, 0x3d,
  0xdf, 0x33, 0x8b, 0xbd, 0x61, 0x47, 0x7e, 0xbe, 0xc0, 0xc6, 0x03, 0x3e,
  0x0b, 0x82, 0xcb, 0xbd, 0xeb, 0xdd, 0x0e, 0x3f, 0xc1, 0xf8, 0xbc, 0xbd,
  0x56, 0xa7, 0xe6, 0xbd, 0x63, 0xe1, 0xc3, 0x3f, 0x97, 0x77, 0x9b, 0xbd,
  0xeb, 0xb4, 0x7e, 0xbe, 0x34, 0xcc, 0xb6, 0xbe, 0xb7, 0xc8, 0xd6, 0xbd,
  0xda, 0x65, 0xfe, 0xbd, 0x4c, 0x9e, 0xb5, 0xbe, 0xf7, 0x14, 0xa6, 0xbb,
  0x9d, 0x99, 0x1b, 0xbe, 0x4a, 0x71, 0x7a, 0xbc, 0xdc, 0x59, 0x13, 0xbe,
  0x09, 0xa0, 0x34, 0x3d, 0x1d, 0x06, 0x2c, 0xbe, 0x98, 0xf7, 0xe1, 0x3e,
  0x76, 0x64, 0x1c, 0xbe, 0x1a, 0xe5, 0xa7, 0xbb, 0xcc, 0x4d, 0x0d, 0x40,
  0xcc, 0xeb, 0xb3, 0xbe, 0xdc, 0x10, 0xc7, 0xbd, 0x22, 0x3b, 0xa3, 0xbc,
  0x2e, 0x38, 0xad, 0xbd, 0x20, 0x97, 0x19, 0x3e, 0x75, 0xb4, 0x71, 0xbe,
  0xe7, 0x06, 0x9a, 0xbe, 0x7b, 0x2b, 0xc3, 0xbd, 0x5f, 0x23, 0xf5, 0x3c,
  0x02, 0x8c, 0x41, 0xbe, 0x88, 0xda, 0x62, 0x3e, 0xc5, 0xf0, 0x5e, 0xbd,
  0x01, 0x7d, 0xb4, 0x3e, 0xcb, 0xc3, 0x39, 0xbc, 0x7a, 0x58, 0x0e, 0xbd,
  0x62, 0x65, 0xc9, 0x3f, 0xdd, 0xda, 0x35, 0x3d, 0x33, 0x7d, 0xe3, 0xbd,
  0x9a, 0x04, 0x88, 0x3e, 0x59, 0x78, 0x73, 0xbe, 0xdd, 0xd8, 0x14, 0xbe,
  0x6d, 0x08, 0x29, 0xbe, 0xa6, 0x19, 0xe6, 0xbd, 0x7f, 0x42, 0x2c, 0xbe,
  0x6b, 0x28, 0xc6, 0x3c, 0x45, 0xc0, 0xb2, 0x3d, 0x12, 0x88, 0x33, 0x3d,
  0x4e, 0xf6, 0x04, 0x3d, 0xcb, 0xb0, 0xf5, 0x3e, 0x35, 0xf3, 0xe9, 0xbb,
  0x37, 0x63, 0x8f, 0xbd, 0xec, 0x96, 0x15, 0x40, 0x35, 0x87, 0x83, 0x3d,
  0x57, 0x0a, 0x0f, 0x3e, 0x31, 0x62, 0x81, 0x3e, 0x8c, 0x95, 0x01, 0xbe,
  0x9b, 0xfa, 0xbd, 0x3e, 0x5e, 0x2a, 0x65, 0xbe, 0x9f, 0xbe, 0x8f, 0x3e,
  0x9b, 0xbf, 0x0f, 0xbd, 0x7c, 0x63, 0x90, 0xbd, 0xca, 0xc7, 0xc5, 0xbd,
  0x07, 0x64, 0x72, 0x3d, 0xbf, 0xbc, 0x23, 0xbe, 0x16, 0x5e, 0x7e, 0xbe,
  0x7a, 0x94, 0x06, 0xbe, 0x4c, 0xba, 0xeb, 0xbd, 0xc0, 0x81, 0x91, 0x3f,
  0xbd, 0x6e, 0x2a, 0xbe, 0x7e, 0x1e, 0x87, 0xbd, 0x82, 0x1a, 0x52, 0xbe,
  0x53, 0x10, 0xfe, 0xbd, 0x6c, 0x33, 0xc8, 0xbd, 0xcd, 0xde, 0x25, 0xbe,
  0xee, 0x26, 0x79, 0xbd, 0x2d, 0x18, 0xad, 0x3e, 0x6a, 0x00, 0x22, 0xbe,
  0x21, 0x8d, 0x24, 0xbe, 0x62, 0x93, 0x8d, 0xbe, 0x96, 0x02, 0x7c, 0xbe,
  0xef, 0x18, 0x3d, 0x3b, 0xe4, 0x19, 0x9c, 0xbe, 0xd8, 0x44, 0x7e, 0xbc,
  0xd1, 0xa8, 0x36, 0x3e, 0x39, 0x25, 0x33, 0xbe, 0x90, 0x24, 0x9d, 0x3c,
  0xf6, 0xe2, 0x88, 0x3c, 0xe7, 0xa7, 0xaa, 0x3c, 0x58, 0x3b, 0x46, 0x3d,
  0xd5, 0xc9, 0xab, 0xbc, 0x1e, 0xe4, 0xb6, 0xbd, 0x7b, 0xcc, 0x2b, 0xbe,
  0x31, 0xea, 0xb2, 0xbd, 0x6c, 0x5f, 0x49, 0xbe, 0x7e, 0x05, 0x87, 0xbe,
  0x5c, 0xc0, 0xae, 0xbd, 0xa5, 0x03, 0x71, 0xbb, 0xff, 0x6d, 0x0f, 0xbe,
  0xa3, 0x1c, 0x1f, 0x3d, 0x8c, 0xc8, 0x1a, 0xbe, 0x21, 0xcf, 0xe0, 0xbc,
  0xcb, 0xb1, 0x10, 0x3d, 0xa7, 0x21, 0x31, 0xbb, 0xb6, 0xf3, 0x24, 0xbe,
  0x6d, 0x14, 0x7a, 0x3d, 0x96, 0xc6, 0xb2, 0xba, 0x80, 0xd6, 0xd5, 0xbd,
  0x0a, 0x61, 0x4d, 0xbe, 0x7b, 0xfb, 0x3f, 0xbe, 0x50, 0xf0, 0x67, 0xbe,
  0x5f, 0xd4, 0x45, 0x3b, 0x0a, 0xe0, 0xac, 0xbc, 0xf6, 0xf3, 0x17, 0xbe,
  0xa2, 0xda, 0x01, 0xbe, 0x9f, 0xfd, 0x4e, 0x3d, 0xcb, 0xd2, 0x00, 0xbd,
  0xb8, 0xa6, 0x6b, 0xbe, 0x03, 0x31, 0x02, 0x3e, 0xc2, 0x44, 0x0f, 0xbd,
  0x23, 0xdc, 0x5a, 0xbe, 0x00, 0x78, 0x12, 0x3d, 0xa1, 0x81, 0xd4, 0xbd,
  0x3e, 0xcd, 0x54, 0xbe, 0x96, 0xd5, 0xd7, 0xbd, 0x6a, 0x10, 0x90, 0xbd,
  0x89, 0x1e, 0x4a, 0xbe, 0x69, 0x91, 0x77, 0xbd, 0x13, 0xf0, 0xbb, 0xbd,
  0x7e, 0x27, 0x79, 0xbe, 0x82, 0xf9, 0xc7, 0xbe, 0x85, 0x98, 0x2a, 0xbe,
  0x42, 0xf4, 0x6d, 0x3c, 0x48, 0xa8, 0xff, 0x3d, 0xc2, 0x87, 0x0e, 0x3e,
  0x1b, 0x7e, 0x3a, 0xbe, 0xa0, 0xb3, 0x9c, 0xbe, 0x2a, 0x46, 0x12, 0xbe,
  0x63, 0x55, 0x3a, 0xbe, 0xea, 0x1f, 0xbc, 0xbd, 0x24, 0x4d, 0x23, 0xbe,
  0x76, 0x6b, 0xaa, 0x3b, 0x25, 0x94, 0x46, 0xbe, 0xd0, 0x6b, 0x7b, 0xbd,
  0x5f, 0x75, 0x73, 0xbd, 0x3b, 0x60, 0xd5, 0x3c, 0xae, 0xb7, 0xcc, 0xbd,
  0x76, 0x19, 0xff, 0xbd, 0xd8, 0xaa, 0x46, 0xbe, 0x59, 0x7f, 0xc7, 0x3d,
  0x44, 0x27, 0xa0, 0xbd, 0xde, 0xe1, 0x7f, 0xbe, 0x50, 0x99, 0x08, 0xbd,
  0x24, 0xec, 0x01, 0xbe, 0xdf, 0x92, 0x04, 0xbe, 0x7e, 0x7d, 0xfc, 0xbd,
  0xb0, 0x7d, 0x03, 0xbe, 0xca, 0xb0, 0x69, 0x3d, 0xab, 0x9a, 0xa3, 0x3d,
  0xd5, 0x52, 0x6c, 0xbe, 0xe9, 0xf0, 0xbb, 0x3d, 0x7e, 0x19, 0x19, 0x3d,
  0xa8, 0xa4, 0xc9, 0xbd, 0xab, 0xac, 0xa7, 0xbd, 0x52, 0xe8, 0x98, 0xbd,
  0xc3, 0x47, 0x1a, 0xbe, 0x83, 0xea, 0x4f, 0xbe, 0x8f, 0xf2, 0x77, 0x3d,
  0xac, 0x28, 0x70, 0xbe, 0x5e, 0x52, 0x6b, 0xbe, 0x0e, 0x6b, 0x8d, 0xbe,
  0x22, 0x95, 0x02, 0xbe, 0xee, 0x96, 0xb8, 0x3c, 0xee, 0xac, 0x68, 0xbd,
  0x7b, 0x2d, 0xdc, 0x3c, 0xd0, 0xce, 0x7c, 0x3b, 0x3b, 0x49, 0x3b, 0xbe,
  0x12, 0xa7, 0xf4, 0x3c, 0xb0, 0xa8, 0x71, 0xbe, 0xe6, 0x7d, 0x51, 0xbe,
  0xc3, 0xbe, 0x02, 0xbe, 0xc3, 0xa1, 0x64, 0xbe, 0x1c, 0xec, 0x2a, 0xbe,
  0x67, 0xb6, 0xb6, 0x3d, 0x55, 0xec, 0x57, 0xbe, 0x20, 0x81, 0x9c, 0xbd,
  0x80, 0x79, 0x7a, 0xbe, 0xda, 0x60, 0x96, 0xbe, 0x39, 0x43, 0x06, 0xbd,
  0x07, 0x86, 0x94, 0xbe, 0xed, 0x66, 0x92, 0x3d, 0x8a, 0x22, 0x14, 0xbf,
  0x55, 0x97, 0x26, 0x3e, 0x1b, 0x6d, 0xaa, 0x3d, 0xc7, 0x83, 0xb4, 0xbe,
  0x81, 0xde, 0x05, 0xbe, 0x57, 0x28, 0x8a, 0xbe, 0x30, 0xbc, 0xe0, 0x3e,
  0x23, 0xc5, 0x24, 0xbe, 0x93, 0x4e, 0x0a, 0xbe, 0x30, 0x87, 0xc9, 0xbe,
  0x2c, 0x07, 0x47, 0x3e, 0xce, 0xda, 0x10, 0x3e, 0x93, 0x94, 0x29, 0x3e,
  0x32, 0x0a, 0x45, 0xbd, 0x89, 0xe6, 0xfc, 0xbd, 0x56, 0xf4, 0xa9, 0x3e,
  0xfe, 0xe8, 0xdd, 0xbd, 0x02, 0x52, 0x3f, 0xbe, 0x90, 0xb6, 0x72, 0x3d,
  0xb5, 0x3d, 0x50, 0xbe, 0x2b, 0x74, 0x9f, 0xbd, 0x84, 0x4e, 0x14, 0xbe,
  0xba, 0x50, 0x96, 0xbd, 0xd1, 0x9c, 0x07, 0xbf, 0x24, 0x4f, 0x77, 0xbd,
  0x04, 0xe6, 0xd0, 0x3d, 0x9d, 0xbb, 0x92, 0xbe, 0x69, 0x2b, 0xf2, 0x3c,
  0x69, 0x4e, 0x8f, 0xbd, 0xe9, 0xbd, 0xa7, 0xbc, 0xf6, 0xe7, 0xbb, 0xbd,
  0xf7, 0xce, 0x00, 0x3d, 0x69, 0xd8, 0xd0, 0x3d, 0xb2, 0xf0, 0xdc, 0xbd,
  0x59, 0x57, 0x85, 0x3d, 0xb8, 0xd4, 0x78, 0x3c, 0x27, 0x2e, 0x39, 0xbe,
  0xc8, 0xe4, 0xfc, 0xbd, 0x03, 0x62, 0x3e, 0xbe, 0xa2, 0x97, 0xb5, 0xbe,
  0xce, 0x20, 0x88, 0xbe, 0x8d, 0x4d, 0x5c, 0x3e, 0xed, 0xc7, 0xaa, 0x3c,
  0xc3, 0x13, 0x5a, 0xbd, 0x75, 0x3c, 0xcf, 0xbe, 0x7a, 0x8d, 0xaa, 0x3c,
  0xf3, 0x83, 0x7f, 0xbd, 0xf2, 0x4c, 0xd3, 0xbd, 0x69, 0xaa, 0x9d, 0x3d,
  0x18, 0x01, 0x0b, 0xbe, 0xde, 0xd4, 0xa0, 0xbd, 0x37, 0x11, 0xaf, 0xbc,
  0x97, 0xcb, 0x96, 0xbd, 0x69, 0xc1, 0x07, 0x3e, 0x65, 0x0d, 0x98, 0xbe,
  0xe8, 0x08, 0xa1, 0xbd, 0xba, 0xb3, 0xc0, 0xbd, 0xc2, 0xe3, 0x21, 0x3c,
  0x46, 0xf5, 0x25, 0xbd, 0xe2, 0x24, 0x81, 0xbe, 0xfe, 0x0e, 0xc4, 0xbe,
  0x28, 0xdf, 0xbe, 0xbd, 0x0f, 0x3e, 0x0f, 0x3d, 0x36, 0x3f, 0x82, 0x3c,
  0xa3, 0xa6, 0xa8, 0x3d, 0x97, 0x5e, 0xd6, 0xbd, 0x7e, 0xbb, 0x41, 0xbe,
  0x7e, 0x77, 0x8b, 0x3d, 0x51, 0x1f, 0x1f, 0xbe, 0x37, 0xbf, 0x66, 0xbe,
  0x3a, 0x9d, 0xca, 0xbe, 0x09, 0x19, 0xc6, 0xbe, 0xa8, 0x63, 0x96, 0xbe,
  0x0c, 0xd4, 0x31, 0xbd, 0xd4, 0x7a, 0x89, 0x3d, 0x89, 0x73, 0xdd, 0xbc,
  0xcb, 0x08, 0xb4, 0xbe, 0x7e, 0xb1, 0x70, 0xbc, 0xfb, 0xbe, 0x39, 0xbd,
  0x34, 0xeb, 0x9d, 0xbd, 0x19, 0x18, 0x2b, 0x3d, 0x20, 0x70, 0xc5, 0x3e,
  0xbd, 0x22, 0x0a, 0xbe, 0xa5, 0x2a, 0x94, 0xbe, 0xea, 0xcd, 0xc6, 0xbc,
  0xf4, 0xcd, 0x89, 0xbe, 0x21, 0xad, 0xbd, 0x3e, 0x03, 0x13, 0xd9, 0xbe,
  0xce, 0x08, 0xa3, 0xbe, 0xc4, 0xd2, 0x74, 0x3d, 0x10, 0x5e, 0x07, 0xbe,
  0x48, 0x2d, 0x34, 0x3e, 0x15, 0x13, 0xdc, 0xbd, 0x2e, 0xfd, 0x78, 0xbe,
  0xed, 0x5f, 0xcf, 0xbd, 0xb6, 0xf5, 0x2f, 0xbe, 0xe0, 0x33, 0x9a, 0xbe,
  0x65, 0xc7, 0x1a, 0xbe, 0xa7, 0xf9, 0x4e, 0xbe, 0x26, 0xbb, 0xac, 0xbe,
  0x10, 0x0b, 0x6c, 0xbe, 0x75, 0x51, 0x84, 0x3d, 0x07, 0x56, 0xb6, 0xbd,
  0xe8, 0x1c, 0xab, 0xbe, 0x88, 0x34, 0xdf, 0xbe, 0x16, 0x46, 0x03, 0xbe,
  0x90, 0x51, 0xa9, 0xbe, 0xed, 0x0b, 0x2c, 0x3e, 0x62, 0x5d, 0xec, 0x3e,
  0x95, 0xc5, 0x60, 0xbe, 0x85, 0x31, 0x81, 0x3e, 0x61, 0x5d, 0xeb, 0xbc,
  0x45, 0xc2, 0x70, 0xbe, 0x32, 0xa3, 0x7a, 0xbe, 0x93, 0x47, 0x1c, 0x3f,
  0xc5, 0x62, 0x9b, 0x3e, 0xd9, 0x7e, 0x40, 0xbe, 0x37, 0x82, 0x1b, 0x40,
  0xd8, 0x6a, 0xcd, 0xbc, 0xa8, 0x64, 0x88, 0x3e, 0x82, 0x22, 0x28, 0x3d,
  0x8d, 0xff, 0xc9, 0xbe, 0xb9, 0xfe, 0x72, 0xbe, 0x76, 0x0e, 0xde, 0xbd,
  0x8b, 0x19, 0x7a, 0xbc, 0x82, 0x0c, 0x77, 0xbd, 0x45, 0xa6, 0xee, 0xbe,
  0x53, 0x5c, 0xb5, 0xbe, 0xc3, 0x99, 0x0a, 0xbe, 0x15, 0x11, 0x6b, 0xbd,
  0xae, 0x39, 0x0c, 0x3f, 0x89, 0xfd, 0x9b, 0x3e, 0x2f, 0x66, 0x2e, 0xbe,
  0x8d, 0x1b, 0x0f, 0x40, 0x9b, 0xc3, 0x4c, 0x3e, 0x71, 0x0c, 0xe3, 0x3e,
  0x66, 0xb7, 0xdc, 0x3d, 0xf9, 0xde, 0x3c, 0xbd, 0x25, 0x0b, 0x9a, 0x3d,
  0xf0, 0x3a, 0xd9, 0xbd, 0x3c, 0xfe, 0x2e, 0x3e, 0x8f, 0xb7, 0xb4, 0xbc,
  0xb8, 0xbe, 0xc7, 0xbd, 0x0f, 0x40, 0x42, 0x3c, 0x89, 0x73, 0x09, 0x3d,
  0x05, 0xf4, 0xf3, 0x3d, 0x8e, 0x95, 0xa7, 0x3f, 0xf0, 0xf2, 0x06, 0xbe,
  0x73, 0x52, 0x51, 0x3c, 0xb3, 0x5e, 0x07, 0x40, 0x6b, 0x06, 0x82, 0x3d,
  0xd2, 0xec, 0x53, 0x3e, 0xd5, 0x1e, 0x80, 0xbe, 0x63, 0xa1, 0x47, 0xbe,
  0x5e, 0xa3, 0xa5, 0x3d, 0xf1, 0xd4, 0x6e, 0xbe, 0xb8, 0x37, 0xe0, 0x3d,
  0x87, 0x00, 0xa5, 0xbd, 0x64, 0xd2, 0x2b, 0xbc, 0x47, 0x69, 0xcb, 0x3d,
  0x54, 0xe9, 0x86, 0xbd, 0xb0, 0xe9, 0xb6, 0xbd, 0xdb, 0x78, 0x99, 0x3e,
  0xfd, 0xc8, 0xb4, 0xbe, 0x50, 0x9c, 0x2a, 0x3d, 0x68, 0x0b, 0x00, 0x40,
  0x70, 0xde, 0x78, 0xbe, 0xe1, 0xdf, 0xa6, 0xbe, 0x24, 0x35, 0x36, 0xbd,
  0xa0, 0x49, 0x3b, 0xbd, 0x3b, 0xab, 0xc6, 0xbd, 0xac, 0xf8, 0xaf, 0xbd,
  0xb3, 0x85, 0x8d, 0xbe, 0x33, 0xd5, 0x52, 0x3e, 0xd3, 0x4e, 0x17, 0x3e,
  0xec, 0xc3, 0x1c, 0xbe, 0x2a, 0xd9, 0xb5, 0x3d, 0xbf, 0x09, 0x5f, 0xbe,
  0x5f, 0x94, 0x36, 0x3f, 0x0b, 0x3d, 0x91, 0xbe, 0xee, 0xfc, 0xf5, 0x3c,
  0x04, 0x26, 0x2f, 0x40, 0x7f, 0xb5, 0x8d, 0xbe, 0x73, 0xb8, 0xa6, 0xbd,
  0x66, 0x80, 0xaf, 0x3d, 0x0f, 0xdc, 0x7b, 0xbd, 0xde, 0x90, 0xae, 0xbb,
  0xbb, 0xb8, 0xfb, 0xbc, 0x4a, 0x7c, 0x0f, 0xbe, 0x0a, 0x52, 0x48, 0xbe,
  0x01, 0x24, 0xae, 0x3a, 0x5a, 0xc8, 0x6c, 0xbd, 0x44, 0x4f, 0xf8, 0xbc,
  0xf7, 0xe2, 0x06, 0xbe, 0x38, 0x49, 0xf3, 0x3e, 0x3d, 0x52, 0x99, 0xbe,
  0x0f, 0x14, 0x85, 0xbd, 0xed, 0xf7, 0x06, 0x40, 0x55, 0xc3, 0x49, 0xbe,
  0x57, 0xa8, 0x1e, 0xbe, 0xbe, 0x9a, 0x24, 0xbd, 0xe6, 0xd9, 0x67, 0x3c,
  0x2f, 0xc3, 0x2e, 0x3c, 0x85, 0xc7, 0xb3, 0x3b, 0x25, 0xd1, 0x07, 0x3d,
  0x78, 0xc3, 0x20, 0xbd, 0xdf, 0x41, 0xcf, 0xbd, 0xf9, 0xa9, 0x08, 0x3e,
  0x20, 0xbc, 0x33, 0x3d, 0x8e, 0x24, 0x10, 0xbe, 0x44, 0x1e, 0x46, 0xbe,
  0x80, 0x44, 0x51, 0xbe, 0x3d, 0x1b, 0x4b, 0xbd, 0x11, 0xdf, 0x2c, 0x40,
  0x47, 0x8d, 0x96, 0xbe, 0xcd, 0xbe, 0x32, 0xbd, 0xf2, 0xef, 0xbd, 0x3d,
  0x05, 0x22, 0x68, 0xbe, 0x3f, 0x0b, 0xae, 0x3d, 0x36, 0x05, 0x58, 0xbe,
  0xf6, 0x3a, 0xbc, 0xbd, 0xb3, 0xb1, 0xb1, 0x3d, 0xe2, 0x6b, 0xef, 0xbc,
  0x4e, 0x3f, 0x0a, 0x3c, 0x81, 0x3a, 0xa7, 0xbd, 0xa4, 0xf4, 0xb9, 0xbc,
  0x88, 0x7b, 0x80, 0xbc, 0xe5, 0x69, 0x42, 0x3d, 0x3e, 0x98, 0x6c, 0xbe,
  0x4f, 0x0f, 0x11, 0x40, 0x25, 0xac, 0x0b, 0x3e, 0x1a, 0xf0, 0xde, 0x3e,
  0x8e, 0x4d, 0xdb, 0x3e, 0x19, 0x26, 0xca, 0xbc, 0x1a, 0x92, 0xe1, 0x3c,
  0xe3, 0xcf, 0x13, 0x3d, 0x7f, 0xd0, 0x3a, 0x3e, 0x3f, 0x29, 0x6b, 0xbe,
  0xd7, 0x30, 0xbb, 0xbd, 0x95, 0xab, 0x56, 0x3d, 0x6a, 0xa6, 0x75, 0xbd,
  0x95, 0x1c, 0x74, 0xbc, 0x99, 0x4a, 0xcb, 0x3e, 0xf8, 0x22, 0xa7, 0x3c,
  0x12, 0xd1, 0xc4, 0xbe, 0xe0, 0xba, 0xeb, 0x3f, 0x69, 0x78, 0x8a, 0x3e,
  0xf0, 0xa0, 0x5c, 0xbb, 0x54, 0x12, 0x2a, 0xbf, 0xdb, 0x2f, 0xb1, 0x3c,
  0x77, 0x9e, 0xa8, 0xbd, 0x34, 0xe1, 0x47, 0xbe, 0xed, 0x4e, 0x53, 0x3e,
  0xe0, 0x69, 0x93, 0x3c, 0x76, 0x85, 0x2d, 0xbd, 0x3d, 0x05, 0xd2, 0x3c,
  0xd4, 0x62, 0x85, 0x3d, 0xe0, 0x4e, 0x87, 0xbe, 0x7a, 0xd3, 0x70, 0x3e,
  0x4f, 0xc3, 0xac, 0x3c, 0xce, 0x1e, 0xb3, 0xbe, 0xad, 0x3f, 0xc8, 0x3f,
  0x92, 0xf6, 0xc8, 0xbe, 0x2f, 0x70, 0x9a, 0xbe, 0xa5, 0x49, 0xd3, 0xbe,
  0x06, 0x88, 0x96, 0x3c, 0x5b, 0x38, 0xd0, 0xbd, 0xac, 0xc8, 0x55, 0xbe,
  0x8a, 0x28, 0x24, 0xbe, 0x38, 0x25, 0x94, 0xbd, 0x2f, 0xdb, 0x85, 0xbc,
  0xea, 0xfe, 0x42, 0x3d, 0x00, 0xe7, 0x99, 0x3d, 0xd8, 0x4c, 0x5c, 0xbe,
  0xca, 0xd0, 0x3e, 0x3e, 0xb3, 0x26, 0x14, 0x3c, 0x3f, 0x98, 0xef, 0xbe,
  0x41, 0x6b, 0xf3, 0x3f, 0x05, 0x05, 0x60, 0xbe, 0x5a, 0x95, 0x78, 0xbe,
  0xaa, 0xf3, 0xd0, 0xbe, 0x6e, 0x2a, 0x5f, 0xbc, 0xd0, 0x13, 0x96, 0x3d,
  0xb4, 0x10, 0x11, 0xbe, 0x43, 0x77, 0xcd, 0xbe, 0xad, 0xa1, 0x84, 0xbb,
  0x8b, 0x2f, 0xf7, 0xba, 0xcc, 0x72, 0x9c, 0x3d, 0x99, 0x57, 0x50, 0x3d,
  0xe4, 0xd1, 0xa6, 0xbe, 0xb5, 0xed, 0x3f, 0x3e, 0x8d, 0xcc, 0x97, 0x3c,
  0x98, 0x21, 0x64, 0xbe, 0x0f, 0xe2, 0x0a, 0x40, 0x8f, 0x97, 0xb0, 0xbe,
  0x7e, 0xff, 0x9d, 0xbe, 0xbb, 0x52, 0x93, 0xbe, 0x5b, 0x95, 0x02, 0x3d,
  0xe1, 0x75, 0xb6, 0xbd, 0xed, 0x2e, 0x18, 0xbe, 0x99, 0x51, 0xba, 0xbe,
  0xba, 0xd3, 0xb9, 0x3b, 0x59, 0x10, 0xfc, 0xbc, 0x28, 0x88, 0x9b, 0xbd,
  0x6f, 0x84, 0xec, 0x3d, 0x8f, 0x70, 0x63, 0xbe, 0x8d, 0x3e, 0x30, 0x3e,
  0xee, 0x3f, 0x4f, 0xbd, 0x36, 0x32, 0xaa, 0xbe, 0x53, 0xe3, 0xee, 0x3f,
  0x30, 0x48, 0xac, 0x3e, 0x5a, 0x0f, 0x77, 0xbe, 0xe3, 0x24, 0x8e, 0xbd,
  0xad, 0xa4, 0xbf, 0x3c, 0x37, 0x0f, 0x58, 0x3e, 0x33, 0x25, 0xe1, 0xbd,
  0xec, 0x30, 0xa3, 0x3b, 0x4b, 0xf4, 0x18, 0xbe, 0x81, 0x46, 0xca, 0xbc,
  0x22, 0x1b, 0x96, 0x3d, 0xc5, 0x94, 0x0b, 0xbd, 0x3b, 0xc9, 0xcc, 0x3d,
  0x77, 0x19, 0xb8, 0xbd, 0xba, 0x1c, 0x5d, 0x3b, 0xda, 0x2a, 0x19, 0xbe,
  0x9d, 0x41, 0x17, 0x3f, 0x29, 0x15, 0xbf, 0x3d, 0xce, 0x35, 0xf0, 0x3e,
  0xac, 0x97, 0xdb, 0x3e, 0x77, 0x5b, 0x83, 0xbd, 0xf8, 0x90, 0xac, 0x3e,
  0xfd, 0xbf, 0x49, 0x3b, 0x5d, 0xc4, 0x17, 0x3e, 0x27, 0x63, 0x89, 0x3d,
  0x20, 0x0e, 0x16, 0xbc, 0xe4, 0x0e, 0x4e, 0xbe, 0x62, 0x1b, 0xdb, 0x3e,
  0x76, 0x20, 0x43, 0xbe, 0xb8, 0x5b, 0xfd, 0xbd, 0x70, 0x47, 0xb0, 0xbe,
  0xaf, 0x2d, 0xdd, 0x3d, 0x86, 0xa9, 0x2e, 0xbd, 0x27, 0x6c, 0xae, 0xbe,
  0x08, 0x39, 0x7f, 0x3e, 0x85, 0xbc, 0x23, 0xbe, 0x33, 0xc1, 0x76, 0xbc,
  0x84, 0x3f, 0x14, 0xbd, 0xd7, 0x92, 0x8b, 0xbe, 0x6a, 0xf2, 0x80, 0xbd,
  0xa1, 0x84, 0x5a, 0x3d, 0x23, 0x18, 0xdf, 0x3d, 0x62, 0x2c, 0xb0, 0xbe,
  0xb5, 0x4b, 0xeb, 0x3d, 0xc0, 0x3d, 0x83, 0xbc, 0x6c, 0x6b, 0x1c, 0xbe,
  0xff, 0xd6, 0x01, 0xbf, 0x34, 0xfc, 0x13, 0x3e, 0x5b, 0xf2, 0x25, 0xbe,
  0x3c, 0x10, 0xc0, 0xbe, 0xe5, 0x04, 0xfc, 0xbc, 0x55, 0xc4, 0x9a, 0x3c,
  0x3f, 0x28, 0xc8, 0x3e, 0xe0, 0xc8, 0x46, 0x3d, 0x38, 0x0b, 0xe2, 0x3c,
  0x2a, 0x97, 0xbd, 0xbd, 0x2b, 0x32, 0x0f, 0x3e, 0x1c, 0xb5, 0xbf, 0xbd,
  0x65, 0x33, 0x3f, 0x3e, 0x5f, 0x82, 0x5e, 0x3e, 0x21, 0x93, 0x0f, 0xbd,
  0xef, 0x68, 0x0c, 0xbd, 0x28, 0xcd, 0xa1, 0xbe, 0xfa, 0x10, 0xe1, 0x3d,
  0x75, 0xb9, 0x94, 0xbd, 0x83, 0x73, 0xce, 0x3d, 0x45, 0x0a, 0x5f, 0xbc,
  0xf3, 0x4e, 0x2f, 0x3e, 0x41, 0xd8, 0xf8, 0x3d, 0x1a, 0x3a, 0x45, 0x3d,
  0x81, 0x5e, 0xb2, 0x3d, 0x18, 0x3f, 0x7c, 0x3e, 0x2f, 0xd6, 0x18, 0x3e,
  0x95, 0x1c, 0x81, 0x3d, 0xe1, 0x27, 0x10, 0x3b, 0x00, 0xfd, 0x58, 0x3d,
  0x7a, 0x9c, 0x9c, 0x3e, 0x21, 0x93, 0x18, 0xbe, 0x23, 0x08, 0xb0, 0xbe,
  0xe3, 0x10, 0x67, 0x3d, 0xe1, 0x50, 0x7d, 0xbe, 0xae, 0x4d, 0xeb, 0x3e,
  0xc2, 0xcf, 0xfa, 0x3e, 0xa6, 0xab, 0x33, 0x3e, 0x71, 0x7d, 0x1c, 0x3e,
  0x44, 0x9d, 0xbd, 0x3e, 0x41, 0x5e, 0x04, 0x3d, 0x14, 0x3b, 0x0e, 0x3f,
  0x16, 0xf3, 0x9b, 0x3d, 0xe9, 0x99, 0xa7, 0xbd, 0xba, 0xb8, 0xce, 0x3d,
  0x20, 0x61, 0x45, 0x3d, 0x39, 0xe7, 0x28, 0x3c, 0x09, 0xc1, 0xe5, 0xbd,
  0xb8, 0x13, 0x81, 0xbe, 0x8f, 0x94, 0xc5, 0x3d, 0xe4, 0x01, 0xdf, 0xbd,
  0x80, 0xdf, 0xcf, 0xbd, 0xec, 0x69, 0x2a, 0x3b, 0x01, 0xe6, 0x17, 0x3e,
  0xdf, 0x92, 0x60, 0x3d, 0x7f, 0x21, 0x99, 0x3e, 0x74, 0x0c, 0xab, 0xbb,
  0x11, 0x1c, 0x7a, 0x3e, 0xd8, 0x61, 0x9e, 0x3c, 0x10, 0x46, 0x0b, 0x3d,
  0x33, 0xac, 0x22, 0x3e, 0xcc, 0xc5, 0x4b, 0xbb, 0xe3, 0xd4, 0xa5, 0xbd,
  0x46, 0x3c, 0xfd, 0x3d, 0x7f, 0x39, 0x44, 0xbe, 0xdf, 0xc7, 0xdd, 0x3d,
  0xda, 0x11, 0xc6, 0x3c, 0x83, 0x77, 0x89, 0xbe, 0xce, 0x8b, 0xec, 0x3d,
  0x5e, 0x68, 0xbf, 0x3d, 0x3b, 0x75, 0x8a, 0x3d, 0x89, 0x19, 0xb8, 0x3c,
  0x07, 0x0b, 0xfc, 0xbd, 0xd3, 0x41, 0x58, 0x3e, 0xfc, 0x28, 0x1e, 0x3e,
  0x2b, 0x53, 0x3f, 0x3d, 0x18, 0x43, 0x75, 0x3d, 0x77, 0x50, 0x9d, 0x3e,
  0xf1, 0x20, 0xf1, 0xbd, 0xe7, 0x9d, 0x91, 0x3d, 0x9f, 0xeb, 0x68, 0xbe,
  0x6f, 0xae, 0x50, 0x3b, 0x8f, 0x44, 0x79, 0xbe, 0xdd, 0xfe, 0xe2, 0xbd,
  0xde, 0x7c, 0x25, 0x3d, 0x06, 0x4a, 0x04, 0x3e, 0xba, 0x93, 0xe7, 0xbd,
  0x37, 0x58, 0x8c, 0x3e, 0x6f, 0xd3, 0xba, 0xbd, 0x1a, 0x9c, 0x4c, 0xbe,
  0xd8, 0xd6, 0x97, 0x3e, 0x15, 0xfd, 0xbc, 0xbd, 0x48, 0xd3, 0x9f, 0xbd,
  0x93, 0x8e, 0xaa, 0xbd, 0x3c, 0xed, 0x50, 0xbe, 0xc3, 0xcf, 0x30, 0x3f,
  0x80, 0x77, 0x42, 0xbe, 0xba, 0xcd, 0xac, 0xbd, 0xe6, 0x01, 0xf9, 0x3f,
  0x28, 0xfa, 0x38, 0xbe, 0x81, 0x17, 0x27, 0xbe, 0xe6, 0x94, 0xf1, 0xbd,
  0x01, 0xf6, 0x5f, 0x3d, 0xca, 0xeb, 0xda, 0xbc, 0xe3, 0x8b, 0xb0, 0xbd,
  0x66, 0xdf, 0xce, 0xba, 0x0f, 0x31, 0xbd, 0xbd, 0x06, 0xcd, 0x86, 0xbe,
  0x64, 0xa4, 0xe6, 0xbd, 0x0b, 0xbb, 0xf2, 0xbc, 0x74, 0x90, 0xdf, 0xbc,
  0xc6, 0x53, 0xeb, 0x3e, 0x1a, 0x50, 0x24, 0xbe, 0x23, 0xcb, 0xc8, 0x3c,
  0x48, 0x40, 0xcf, 0x3f, 0xdb, 0xba, 0x38, 0xbd, 0x03, 0x82, 0x17, 0xbe,
  0xcc, 0x75, 0x03, 0xbe, 0x0b, 0xcf, 0x67, 0x3d, 0x0b, 0xdd, 0xe1, 0xbd,
  0x79, 0x36, 0xa2, 0xbd, 0x69, 0x10, 0x7d, 0xbd, 0x12, 0x5d, 0x4a, 0xbb,
  0xd5, 0x4c, 0xbc, 0x3c, 0x57, 0xba, 0x2b, 0x3d, 0x21, 0xc3, 0x3f, 0xbd,
  0x87, 0x2c, 0x8a, 0xbd, 0x86, 0x62, 0x6e, 0x3f, 0xe1, 0x9d, 0x8e, 0xbe,
  0x36, 0x50, 0x14, 0xbe, 0x70, 0x9c, 0xdd, 0x3f, 0x24, 0xc8, 0xd5, 0x3d,
  0xc0, 0x84, 0x83, 0xbe, 0xc8, 0x72, 0x43, 0xbe, 0xbd, 0xd8, 0x31, 0xbe,
  0xc1, 0xee, 0x23, 0xbe, 0x52, 0x78, 0x76, 0xbe, 0xce, 0xbf, 0x0e, 0xbd,
  0xa1, 0x85, 0x5f, 0x3d, 0x4c, 0xfb, 0xe9, 0x3b, 0xe1, 0x64, 0x67, 0xbe,
  0xa6, 0xe4, 0xc6, 0xbd, 0xd7, 0x68, 0xc4, 0xbd, 0x2a, 0xd0, 0x4e, 0x3f,
  0x11, 0x7d, 0x55, 0xbe, 0xab, 0xcc, 0x49, 0xbd, 0x3f, 0xd1, 0xd9, 0x3f,
  0xfe, 0x8a, 0x46, 0xbe, 0x92, 0x9c, 0x1a, 0x3e, 0x84, 0x42, 0x67, 0xbe,
  0x38, 0xb9, 0x0d, 0xbe, 0x39, 0xc3, 0xa6, 0xbc, 0xaf, 0x20, 0xa1, 0x3c,
  0xac, 0x08, 0xc6, 0xbd, 0xe5, 0x96, 0x50, 0xbc, 0x6b, 0x9a, 0x64, 0x3b,
  0xa2, 0x3c, 0x33, 0x3d, 0xd7, 0xca, 0x0a, 0xbe, 0xa4, 0xcd, 0x4f, 0xbe,
  0x9f, 0x67, 0x72, 0x3f, 0x2b, 0xd5, 0x97, 0xbe, 0xd3, 0xb0, 0x48, 0x3d,
  0xd7, 0x19, 0x0a, 0x40, 0x8e, 0x6c, 0x8f, 0xbd, 0xef, 0x31, 0x02, 0x3e,
  0xb2, 0x86, 0xd2, 0x3d, 0x6e, 0x83, 0xd9, 0xbc, 0x05, 0xa6, 0xfa, 0xbd,
  0x4a, 0x27, 0x45, 0xbe, 0xb5, 0xb4, 0x64, 0xbe, 0x76, 0xea, 0xdf, 0x3c,
  0xa2, 0xbd, 0x0a, 0x3e, 0xcd, 0xfa, 0x81, 0xbd, 0x0a, 0xf0, 0x75, 0xbe,
  0x37, 0x86, 0x42, 0xbe, 0x9d, 0x7e, 0x3b, 0x3f, 0x8a, 0x73, 0xac, 0xbe,
  0x12, 0xca, 0xe6, 0xbd, 0x6f, 0xdb, 0xff, 0x3f, 0x07, 0x22, 0x05, 0x3d,
  0xb0, 0x83, 0x2d, 0xbe, 0xa9, 0xc2, 0xd2, 0xbd, 0xbe, 0xa0, 0x3b, 0xbe,
  0x0e, 0xc2, 0x4e, 0x3e, 0xca, 0x9b, 0x63, 0xbc, 0x49, 0xc5, 0x5d, 0xbc,
  0x5d, 0x08, 0x25, 0x3e, 0x5f, 0x18, 0x40, 0xbe, 0x09, 0x3c, 0xa1, 0xbc,
  0xb6, 0x53, 0x02, 0x3e, 0x70, 0x54, 0x7e, 0xbe, 0x7d, 0x0c, 0x5b, 0x3f,
  0x35, 0xe2, 0x65, 0xbe, 0xcc, 0x88, 0x1e, 0xbe, 0x4c, 0xb3, 0x86, 0x3f,
  0x54, 0x1c, 0x97, 0xbe, 0xf8, 0x4e, 0x68, 0xbe, 0x82, 0xe4, 0x9a, 0xbc,
  0xef, 0x1e, 0x80, 0xbe, 0x3e, 0x14, 0x45, 0xbe, 0xb2, 0x8a, 0x7e, 0xbe,
  0x35, 0xf0, 0x9f, 0xbe, 0xd3, 0xd2, 0x71, 0x3d, 0xef, 0xbe, 0x98, 0xbe,
  0x5e, 0xc2, 0xe9, 0x3d, 0xca, 0x15, 0xcd, 0xbe, 0xc2, 0xd9, 0x90, 0xbe,
  0xff, 0x31, 0x5c, 0x3e, 0x03, 0x8c, 0xac, 0x3e, 0x9d, 0xa9, 0x29, 0xbe,
  0xa1, 0x29, 0xcb, 0x3f, 0x4e, 0x5c, 0x8a, 0x3d, 0xcb, 0x6e, 0xd4, 0x3e,
  0xd4, 0x94, 0xd1, 0x3e, 0xcd, 0x68, 0x5d, 0xbe, 0xb9, 0xe1, 0xe3, 0xbe,
  0xbd, 0xfc, 0x7e, 0xbe, 0x35, 0x0a, 0xfd, 0xbd, 0xe3, 0x73, 0x91, 0x3d,
  0x5f, 0x5c, 0x40, 0xbe, 0x84, 0xe4, 0x79, 0xbe, 0xd3, 0x18, 0x40, 0xbe,
  0xfa, 0x81, 0x0e, 0xbe, 0x4e, 0x5b, 0xad, 0x3c, 0x20, 0x16, 0x03, 0x3e,
  0xab, 0x8f, 0xfa, 0xbd, 0x8d, 0xa3, 0xf3, 0x3f, 0xd3, 0x0a, 0xa6, 0x3e,
  0xc2, 0x71, 0x90, 0xbe, 0x98, 0xed, 0xe2, 0x3d, 0x5c, 0xca, 0x1c, 0xbe,
  0x1c, 0x19, 0x8f, 0x3d, 0x19, 0x75, 0x18, 0xbe, 0xf8, 0xb9, 0xde, 0x3d,
  0xb2, 0x18, 0x12, 0xbd, 0x60, 0x6e, 0x17, 0xbc, 0x49, 0x70, 0x85, 0xbe,
  0x0d, 0xb7, 0xdf, 0xbc, 0x76, 0x78, 0xbf, 0x3c, 0x7f, 0x76, 0x8c, 0x3e,
  0xd5, 0x14, 0xa5, 0xbc, 0xfc, 0x05, 0x20, 0xbd, 0x1f, 0x16, 0xba, 0x3f,
  0xc5, 0x4c, 0x86, 0x3e, 0x51, 0xb7, 0x2b, 0x3e, 0x69, 0x35, 0x53, 0xbe,
  0xaa, 0xc1, 0x0a, 0xbd, 0x25, 0xaf, 0x70, 0x3e, 0x75, 0x70, 0x5e, 0xbe,
  0x1e, 0x32, 0x23, 0x3e, 0x12, 0x67, 0xa0, 0x3d, 0x08, 0x74, 0x82, 0x3c,
  0x19, 0x0e, 0x9e, 0xbd, 0x1e, 0x12, 0x64, 0x3d, 0xff, 0x93, 0xbb, 0xbe,
  0xd9, 0x4e, 0xb7, 0x3e, 0x57, 0x74, 0x2d, 0xbd, 0xec, 0x1b, 0x15, 0xbe,
  0xd5, 0xb4, 0xfe, 0x3f, 0x53, 0x0e, 0xe0, 0xbe, 0x86, 0x25, 0x9a, 0xbe,
  0x40, 0x70, 0x68, 0xbe, 0xa7, 0x9e, 0x4e, 0xbd, 0x4a, 0x42, 0x50, 0x3d,
  0x81, 0x13, 0x63, 0xbe, 0xd5, 0x52, 0xf2, 0xbe, 0xe4, 0x1e, 0x2d, 0x3e,
  0x60, 0x88, 0xc3, 0x3d, 0x14, 0x23, 0x12, 0x3e, 0x97, 0x29, 0x98, 0x3c,
  0x30, 0x72, 0x51, 0xbe, 0x84, 0xa4, 0xed, 0x3e, 0xb6, 0x55, 0x63, 0xbd,
  0xf7, 0xb7, 0xc7, 0x3d, 0x7f, 0x92, 0xfe, 0x3f, 0x9f, 0x7f, 0x13, 0xbe,
  0x31, 0xd6, 0x50, 0xbe, 0x33, 0x1c, 0xca, 0xbe, 0x47, 0xbb, 0x15, 0xbe,
  0xfb, 0xd4, 0x11, 0x3e, 0x5a, 0xbe, 0x32, 0xbd, 0x2a, 0x87, 0x03, 0xbe,
  0x9b, 0x7b, 0xec, 0x3d, 0x24, 0x74, 0x4b, 0x3a, 0x70, 0x9c, 0x15, 0xbe,
  0x3c, 0xd7, 0x28, 0x3d, 0x71, 0x9b, 0xe7, 0xbd, 0xdd, 0x64, 0xb4, 0x3e,
  0xc4, 0xc1, 0x95, 0xbc, 0x28, 0x66, 0x03, 0xbd, 0x37, 0x73, 0x07, 0x40,
  0x28, 0xf1, 0x8b, 0xbe, 0x2e, 0x19, 0xca, 0xbe, 0xab, 0xec, 0x01, 0x3e,
  0x8f, 0x4a, 0xb0, 0xbc, 0xe3, 0xbe, 0x07, 0x3e, 0x0f, 0xd6, 0xa3, 0xbe,
  0x16, 0xc1, 0xcc, 0x3d, 0x6b, 0xc9, 0x82, 0x3d, 0x9a, 0xcc, 0xc1, 0x3d,
  0x4d, 0x46, 0x39, 0xbe, 0x13, 0xdf, 0x05, 0x3e, 0x61, 0xf0, 0x85, 0xbe,
  0x62, 0x44, 0x4f, 0x3e, 0x0e, 0x00, 0x88, 0xbc, 0x78, 0x9a, 0xf6, 0xbd,
  0x73, 0x17, 0x86, 0x3f, 0xe4, 0x14, 0x3d, 0x3a, 0xdb, 0x84, 0xa1, 0x3e,
  0x80, 0x66, 0x6a, 0x3e, 0x80, 0x9c, 0x42, 0xbd, 0x4a, 0xff, 0x27, 0xbd,
  0xeb, 0x9c, 0x51, 0xbe, 0x58, 0x9f, 0x2d, 0x3d, 0xc3, 0x18, 0xa8, 0x3c,
  0xc1, 0x1c, 0xca, 0xbd, 0x69, 0x47, 0xb3, 0xbe, 0x8b, 0xe5, 0x1a, 0xbd,
  0x29, 0x9b, 0x06, 0xbf, 0xea, 0x8c, 0x07, 0xbd, 0xc2, 0x57, 0x84, 0xbd,
  0x0a, 0x4e, 0x41, 0x3d, 0x3b, 0xf2, 0xf0, 0x3f, 0xd5, 0xa8, 0xd6, 0xbc,
  0xfc, 0xfb, 0x8c, 0x3d, 0xbe, 0x2c, 0x06, 0x3e, 0x86, 0x1e, 0x1c, 0xbe,
  0x9d, 0xfd, 0x9b, 0xbe, 0xb4, 0x95, 0x5d, 0xbe, 0x03, 0x5d, 0xe1, 0xbd,
  0xf4, 0xd0, 0xec, 0xbc, 0x47, 0x6a, 0x52, 0xbd, 0x89, 0xe8, 0x92, 0xbd,
  0x01, 0x79, 0xb7, 0x3c, 0xb6, 0x13, 0x22, 0x3d, 0xe8, 0xa3, 0xa4, 0x3e,
  0x5e, 0x37, 0x2a, 0x3d, 0x65, 0xee, 0x67, 0xbd, 0x9e, 0x04, 0xf1, 0x3f,
  0x0b, 0x84, 0xa7, 0x3d, 0x28, 0x6a, 0x56, 0xbc, 0xd8, 0xf6, 0xb1, 0x3c,
  0x4f, 0x4a, 0x47, 0xbe, 0x8e, 0x78, 0x6e, 0x3b, 0xc1, 0xcf, 0xbc, 0xbe,
  0xf7, 0xf9, 0x3d, 0x3e, 0xbc, 0xbf, 0x82, 0xbe, 0xab, 0x70, 0x95, 0xbd,
  0xc4, 0x6d, 0x95, 0xbd, 0xf4, 0xe6, 0xc3, 0x3d, 0x05, 0xf0, 0x2b, 0xbe,
  0x92, 0xd2, 0x4b, 0x3e, 0x0f, 0x50, 0x77, 0x3d, 0x6e, 0xe9, 0xdc, 0x3c,
  0x7d, 0xa8, 0xfe, 0x3f, 0x6d, 0x05, 0x47, 0xbe, 0x48, 0x40, 0x84, 0xbe,
  0x28, 0x65, 0x7d, 0xbe, 0x22, 0xc1, 0x3e, 0xbd, 0xbc, 0xf8, 0xef, 0x3d,
  0x5b, 0xbb, 0xa3, 0xbe, 0xf3, 0x7a, 0x28, 0xbe, 0x51, 0xb9, 0x6c, 0xbe,
  0x15, 0x5d, 0x0b, 0x3b, 0xc8, 0xd8, 0x38, 0x3c, 0x38, 0xb5, 0xb6, 0x3d,
  0x9f, 0x11, 0x9c, 0xbe, 0xd2, 0xbf, 0x1f, 0x3c, 0x24, 0xc1, 0x31, 0x3d,
  0xdb, 0x8d, 0x78, 0xbe, 0xe0, 0x61, 0xe0, 0x3f, 0x54, 0xbd, 0x3c, 0x3d,
  0x76, 0x67, 0x80, 0xbe, 0xe3, 0x63, 0xaf, 0xbd, 0x80, 0x5a, 0xd2, 0xbd,
  0xc8, 0x72, 0x86, 0x3c, 0x9f, 0xec, 0x92, 0xbe, 0x96, 0x14, 0x53, 0xbe,
  0xeb, 0xb4, 0x8a, 0xbe, 0x66, 0xd8, 0x28, 0xbc, 0x6b, 0xc3, 0x8c, 0xbc,
  0x5f, 0x46, 0xbb, 0x3d, 0x96, 0x31, 0x24, 0xbe, 0xc0, 0xc7, 0xa7, 0x3e,
  0x50, 0xde, 0x2e, 0x3d, 0xb3, 0xec, 0x55, 0xbe, 0xa3, 0xcf, 0xb6, 0x3f,
  0xab, 0x53, 0x1e, 0xbc, 0xf6, 0xfc, 0xca, 0xbd, 0x36, 0xf8, 0xc4, 0x3d,
  0x03, 0x10, 0x0c, 0xbe, 0x34, 0xc7, 0x87, 0x3c, 0x6b, 0xb3, 0x4c, 0xbe,
  0x18, 0xa0, 0x0b, 0xbd, 0xf8, 0x81, 0x27, 0xbd, 0xf5, 0x33, 0x98, 0xbc,
  0xb0, 0xf2, 0x17, 0x3d, 0x3d, 0xb3, 0x88, 0x3d, 0x8f, 0xe9, 0x33, 0xbd,
  0xf3, 0x19, 0x90, 0x3e, 0xa7, 0xd3, 0x55, 0x3d, 0xe5, 0xea, 0xcf, 0x3c,
  0x3f, 0x1c, 0xd5, 0x3f, 0x3b, 0x2b, 0x28, 0x3e, 0x86, 0xf8, 0x15, 0x3e,
  0x93, 0x97, 0x20, 0x3e, 0x7d, 0xf4, 0x76, 0xbe, 0x45, 0x49, 0xba, 0x3d,
  0x9d, 0x91, 0xad, 0xbe, 0xda, 0x04, 0x37, 0x3d, 0x84, 0xd9, 0x52, 0x3e,
  0x26, 0x30, 0x4b, 0x3d, 0x14, 0x30, 0xa6, 0xbd, 0x0d, 0xf9, 0x98, 0x3b,
  0x59, 0xd5, 0xd1, 0xbd, 0x02, 0x5c, 0x2f, 0xbf, 0xe0, 0x84, 0x32, 0x3e,
  0x93, 0x1b, 0x81, 0xbd, 0x7a, 0x23, 0x88, 0x3e, 0x7d, 0x3b, 0x93, 0x3c,
  0x03, 0xee, 0x05, 0x3e, 0xbb, 0xa0, 0x18, 0x3e, 0x6d, 0x2b, 0x17, 0xbf,
  0x56, 0xaf, 0xeb, 0xbd, 0x74, 0x4c, 0xef, 0xbd, 0xe4, 0x51, 0xed, 0x3d,
  0xae, 0x5c, 0xa5, 0xba, 0xb3, 0x85, 0x56, 0xbd, 0x91, 0x10, 0x7e, 0xbe,
  0x71, 0xf0, 0x4c, 0x3e, 0xda, 0x86, 0x0a, 0xbe, 0x8a, 0x6c, 0xd4, 0x3d,
  0x3d, 0x87, 0x6e, 0x3c, 0xa3, 0xf2, 0x1c, 0x3d, 0xce, 0x55, 0x1c, 0xbe,
  0x91, 0x94, 0x1f, 0xbf, 0x89, 0x6e, 0x6b, 0xbf, 0x25, 0xae, 0xdb, 0xbe,
  0xa0, 0x9e, 0x81, 0x3e, 0x34, 0x0b, 0x25, 0xbd, 0xb7, 0x5b, 0x24, 0xbe,
  0x5b, 0xda, 0x2e, 0xbe, 0xff, 0x18, 0x17, 0x3e, 0x1e, 0xd3, 0x04, 0x3e,
  0x39, 0x43, 0x13, 0xbe, 0xc0, 0x46, 0x66, 0x3e, 0x22, 0xe3, 0x11, 0x3d,
  0x54, 0x56, 0x53, 0xbe, 0x34, 0xba, 0xe3, 0x3b, 0x5f, 0x46, 0x0a, 0x3e,
  0xe0, 0x00, 0x2e, 0xbe, 0x52, 0xb7, 0x36, 0xbd, 0xa2, 0x01, 0x12, 0x3e,
  0x13, 0xd6, 0xeb, 0xbd, 0xa1, 0xc4, 0x03, 0x3e, 0xb0, 0x29, 0xfa, 0x3e,
  0xbd, 0x5a, 0xa4, 0x3d, 0x14, 0xb7, 0xd8, 0xbd, 0x56, 0xc0, 0xa8, 0x3c,
  0xb9, 0xbf, 0x15, 0xbe, 0x04, 0xd6, 0x8d, 0x3e, 0xdf, 0x00, 0x36, 0x3e,
  0x2f, 0x08, 0x26, 0x3e, 0xb7, 0xbd, 0x42, 0xbe, 0x79, 0xf6, 0x25, 0x3d,
  0xf4, 0xcd, 0x72, 0x3c, 0x48, 0x7a, 0xe8, 0xbd, 0xde, 0xe1, 0xe5, 0x3c,
  0xa9, 0x74, 0xbc, 0xbd, 0x4d, 0x6e, 0xab, 0x3e, 0xba, 0x6f, 0x97, 0x3d,
  0xb2, 0x96, 0xe1, 0xbd, 0x6d, 0xb4, 0x95, 0xbd, 0x56, 0x79, 0x8e, 0xbc,
  0xc1, 0x39, 0x4b, 0x3d, 0x88, 0x7c, 0x18, 0xbd, 0xd5, 0x03, 0x65, 0x3e,
  0x65, 0xd6, 0x23, 0x3d, 0x47, 0xcb, 0x4f, 0x3e, 0xb4, 0xef, 0xcd, 0xbe,
  0x91, 0x88, 0x59, 0x3d, 0xdb, 0x0b, 0x27, 0x3e, 0xb2, 0x42, 0x7e, 0xbe,
  0x45, 0x75, 0x41, 0x3f, 0xe5, 0xcf, 0xeb, 0x3e, 0x6c, 0x2e, 0x88, 0x3e,
  0x8f, 0xcd, 0xca, 0x3d, 0xde, 0xa5, 0xb2, 0x3e, 0x31, 0x5d, 0xd2, 0xbb,
  0x60, 0x8a, 0x42, 0x3f, 0x53, 0x67, 0x25, 0x3d, 0xba, 0xf6, 0xdb, 0xbd,
  0x4e, 0xca, 0x12, 0xbd, 0x01, 0x8a, 0xfc, 0x3d, 0x64, 0x62, 0x29, 0x3e,
  0xce, 0xcd, 0xde, 0xbe, 0x9c, 0xa1, 0x48, 0x3d, 0xdf, 0xb6, 0xc1, 0xba,
  0x28, 0x9c, 0x85, 0xbe, 0xc9, 0xe2, 0x37, 0x3e, 0x2c, 0xfc, 0x2a, 0x3e,
  0xca, 0xe0, 0x58, 0x3c, 0x64, 0x8f, 0xa5, 0x3d, 0x8b, 0x26, 0x8c, 0x3e,
  0xea, 0xb1, 0xeb, 0xbc, 0xfd, 0xdf, 0xb0, 0x3e, 0x78, 0x9e, 0xab, 0x3d,
  0x22, 0x4c, 0x8b, 0xbd, 0x57, 0x4d, 0xc1, 0x3d, 0x18, 0x6f, 0x31, 0x3e,
  0xf2, 0xaa, 0xe3, 0xbd, 0xce, 0x54, 0x77, 0xbe, 0x12, 0x71, 0xfd, 0x3c,
  0x6f, 0x4f, 0x3a, 0x3e, 0x11, 0x22, 0x3e, 0xbe, 0x27, 0x48, 0x5d, 0xbe,
  0x49, 0xa3, 0xb4, 0x3d, 0xba, 0xc8, 0x79, 0xbd, 0x04, 0x2e, 0x21, 0x3e,
  0xfa, 0x19, 0xfe, 0x3d, 0xc1, 0xab, 0x3c, 0xbe, 0x72, 0x8a, 0xf4, 0x3d,
  0xab, 0x2f, 0x26, 0x3e, 0x5c, 0x5e, 0x51, 0xbe, 0xb7, 0xe1, 0xfc, 0x3c,
  0xf9, 0x6f, 0xc3, 0x3e, 0x39, 0x3c, 0x25, 0xbe, 0xbd, 0x99, 0x14, 0x3f,
  0x04, 0xaf, 0xde, 0x3c, 0xe8, 0xc8, 0x0d, 0xbd, 0xc0, 0x54, 0x86, 0x3d,
  0xf3, 0x9d, 0x54, 0xbe, 0xce, 0xd2, 0xaf, 0xbe, 0xcc, 0x89, 0xba, 0xbe,
  0x0a, 0x09, 0x4b, 0x3e, 0x47, 0x35, 0x23, 0x3d, 0x10, 0x38, 0x18, 0xbe,
  0x04, 0x55, 0xbd, 0xbe, 0x8a, 0x14, 0x2d, 0x3e, 0x99, 0x18, 0x19, 0xbe,
  0x8d, 0x47, 0x8f, 0xbd, 0xfa, 0x8c, 0x05, 0xbe, 0x55, 0x8e, 0x00, 0xbe,
  0x69, 0x5c, 0x37, 0x3f, 0x45, 0xa4, 0x8e, 0xbe, 0xa0, 0x3d, 0x32, 0xbe,
  0x86, 0xd7, 0x13, 0x40, 0xec, 0xcc, 0xfd, 0xbc, 0x90, 0x67, 0x6c, 0x3d,
  0xf2, 0x0f, 0x53, 0xbe, 0xb0, 0xf3, 0x80, 0xbd, 0x11, 0xa9, 0x95, 0xbd,
  0x69, 0xbc, 0xb3, 0xbd, 0x2f, 0xaf, 0x40, 0x3d, 0xe4, 0x05, 0xf8, 0xbc,
  0x95, 0xf3, 0x1e, 0xbe, 0xc8, 0x42, 0xd9, 0x3c, 0xe4, 0x1b, 0x66, 0x3b,
  0xea, 0x05, 0x40, 0x3d, 0x35, 0xdb, 0x19, 0x3f, 0xbc, 0xd5, 0xa9, 0xbe,
  0xdb, 0xcf, 0x4e, 0xbe, 0x2e, 0x54, 0x20, 0x40, 0x68, 0x5e, 0x16, 0x3d,
  0x1d, 0x38, 0x3c, 0xbd, 0xd7, 0x21, 0x4c, 0xbe, 0x94, 0xab, 0x13, 0xbe,
  0x5d, 0xb2, 0x40, 0x3e, 0xad, 0x18, 0x2c, 0xbe, 0xf0, 0x4e, 0x7f, 0xbd,
  0xc4, 0x41, 0xf3, 0xbd, 0xb2, 0x2f, 0x33, 0xbd, 0x92, 0x4e, 0x54, 0xbd,
  0xa4, 0x06, 0xd0, 0xbd, 0xd9, 0x4d, 0x3e, 0xbe, 0x27, 0xa0, 0x3f, 0x3f,
  0x84, 0x90, 0x43, 0xbe, 0x8e, 0x50, 0xb0, 0xbd, 0x2c, 0xb7, 0x11, 0x40,
  0x61, 0xaf, 0x21, 0xbe, 0x69, 0xab, 0x48, 0x3d, 0xb0, 0x38, 0x08, 0x3c,
  0xf3, 0x9e, 0xba, 0xbd, 0x26, 0xe9, 0x59, 0xbe, 0x05, 0xe9, 0x78, 0xbe,
  0xee, 0x72, 0xab, 0xbd, 0x09, 0x97, 0x75, 0x3d, 0x4b, 0x75, 0x2a, 0xbd,
  0x41, 0xb0, 0x4e, 0x3d, 0xad, 0x00, 0xba, 0x3d, 0x7b, 0x0b, 0xef, 0xbd,
  0xa2, 0x9a, 0x05, 0x3f, 0xdf, 0x3c, 0xbb, 0xbe, 0x8e, 0x86, 0x1a, 0x3c,
  0x84, 0xa4, 0x16, 0x40, 0x38, 0x5d, 0x87, 0xbe, 0xb8, 0x4f, 0xf8, 0x3d,
  0x0a, 0x73, 0x9c, 0xbd, 0x9a, 0xdd, 0x15, 0x3d, 0x5e, 0x12, 0x2e, 0x3d,
  0x8a, 0xc6, 0x85, 0xbe, 0x45, 0xe2, 0xf7, 0x3d, 0xea, 0x97, 0x9f, 0x3d,
  0x97, 0xa2, 0x51, 0xbe, 0x5d, 0x9a, 0xc4, 0x3c, 0x71, 0xdd, 0x67, 0x3e,
  0x09, 0xf8, 0xdf, 0xbc, 0x76, 0xf9, 0x1b, 0x3f, 0xe6, 0x98, 0x33, 0xbe,
  0x8c, 0x8f, 0x0c, 0xbe, 0xb1, 0x8a, 0x01, 0x40, 0x3b, 0x15, 0xba, 0x3d,
  0x46, 0x9e, 0x1a, 0x3d, 0xdd, 0xe7, 0x8a, 0x3b, 0x15, 0x62, 0xd4, 0xbd,
  0x5c, 0xb1, 0x4f, 0xbe, 0xd0, 0x7b, 0xa2, 0xbc, 0x82, 0x79, 0x17, 0xbe,
  0x24, 0x8d, 0x31, 0xbc, 0x70, 0xfc, 0x02, 0xbe, 0x78, 0x98, 0x54, 0xbe,
  0xca, 0x92, 0xea, 0xbd, 0x96, 0x9b, 0x1a, 0xbe, 0xe0, 0x51, 0x41, 0x3f,
  0x94, 0x3c, 0xd9, 0xbd, 0xbe, 0x57, 0xed, 0x3c, 0x85, 0x8b, 0x1c, 0x40,
  0xa7, 0x85, 0xfd, 0x3c, 0x4e, 0x40, 0xa4, 0xbe, 0x90, 0xcb, 0x4b, 0xbd,
  0x83, 0x04, 0x29, 0xbd, 0x2a, 0x91, 0x59, 0x3d, 0x78, 0xd8, 0x0e, 0xbe,
  0x54, 0x6d, 0x1c, 0x3d, 0x9a, 0xcf, 0x4e, 0xbe, 0xc8, 0x33, 0x81, 0xbe,
  0xa6, 0x55, 0x9a, 0x3d, 0x7e, 0xec, 0x58, 0x3e, 0x43, 0x02, 0x87, 0xbe,
  0x6d, 0x88, 0x18, 0x3e, 0x84, 0xd8, 0xd5, 0xbd, 0xfe, 0x52, 0x22, 0xbe,
  0xda, 0x45, 0x8e, 0x3f, 0x13, 0xe5, 0x87, 0xbe, 0x55, 0x46, 0x85, 0xbe,
  0x1d, 0x36, 0x8f, 0xbe, 0x06, 0x37, 0xcf, 0xbb, 0x64, 0x8c, 0xb5, 0x3d,
  0x04, 0x92, 0xa5, 0xbe, 0xbb, 0x4d, 0xcb, 0xbd, 0x22, 0x92, 0xd9, 0x3d,
  0x62, 0x09, 0x51, 0xbb, 0x56, 0xc3, 0xcd, 0xbd, 0xf8, 0xa4, 0xd1, 0xbe,
  0xf6, 0x34, 0xe1, 0x3d, 0xd6, 0x7e, 0x15, 0x3e, 0x7c, 0x54, 0xbc, 0xbe,
  0x11, 0x00, 0x2d, 0xbd, 0x11, 0x88, 0x1d, 0xbe, 0xe0, 0x1b, 0x85, 0x3d,
  0x40, 0x03, 0x9f, 0xbd, 0x31, 0x23, 0xe3, 0xbd, 0x64, 0xbb, 0x2c, 0x3e,
  0x4b, 0xd5, 0xad, 0x3d, 0xf3, 0x99, 0x14, 0x3e, 0x3c, 0x3b, 0x52, 0x3e,
  0x86, 0x2b, 0xb9, 0xbd, 0xe9, 0x50, 0x64, 0xbe, 0xb5, 0x39, 0x06, 0xbe,
  0x6d, 0x95, 0xf3, 0xbc, 0x37, 0x15, 0x33, 0xbe, 0xf8, 0x55, 0x21, 0x3e,
  0x8d, 0xc6, 0xda, 0xbe, 0x2d, 0x0c, 0x38, 0xbe, 0x83, 0x73, 0x38, 0xbe,
  0xd8, 0xf8, 0xb8, 0xbe, 0x99, 0xcc, 0xd0, 0xbd, 0x8f, 0xec, 0x68, 0xbd,
  0xc8, 0x88, 0xb3, 0x3c, 0xfd, 0xec, 0x4b, 0xbe, 0x59, 0x9e, 0x87, 0xbd,
  0xac, 0x65, 0x0f, 0xbd, 0x11, 0x25, 0x47, 0xbe, 0x55, 0xc6, 0xb1, 0xbd,
  0x70, 0x0e, 0x05, 0xbe, 0xd1, 0xf0, 0x1a, 0xbb, 0x02, 0x56, 0xe6, 0xbd,
  0xab, 0xa0, 0xec, 0x3d, 0x7b, 0x9f, 0xcb, 0xbe, 0xf4, 0x17, 0x32, 0xbe,
  0x0e, 0x2b, 0xd5, 0x3d, 0x0d, 0x26, 0x21, 0xbe, 0xd0, 0x0c, 0xc8, 0x3d,
  0x4e, 0xc9, 0xa5, 0xbd, 0x56, 0xe2, 0x81, 0x3d, 0x0b, 0x01, 0x51, 0x3d,
  0x0b, 0xd5, 0xf0, 0xbc, 0x66, 0xdc, 0x6d, 0xbe, 0x01, 0xda, 0xbb, 0x3c,
  0xe1, 0xdc, 0x90, 0xbe, 0x3a, 0xf9, 0x29, 0x3e, 0x52, 0x30, 0xcd, 0xbd,
  0x03, 0x6d, 0x15, 0xbe, 0x35, 0x13, 0xdf, 0xbd, 0x54, 0xfc, 0x9d, 0xbe,
  0x29, 0xc5, 0x65, 0xbc, 0xbd, 0x7d, 0xbf, 0x3d, 0x6e, 0x08, 0xac, 0xbe,
  0x65, 0xf7, 0xb9, 0xbd, 0x59, 0x3a, 0x30, 0xbc, 0x56, 0xfe, 0x65, 0x3c,
  0xdd, 0x6f, 0x7e, 0xbd, 0xb5, 0x01, 0x55, 0x3d, 0xa7, 0xd9, 0x71, 0xbe,
  0x1c, 0x13, 0x3c, 0xbe, 0x8d, 0x2d, 0x8d, 0xbd, 0xe0, 0x31, 0x0d, 0x3d,
  0x45, 0x27, 0x9b, 0x3c, 0x42, 0xfa, 0x3f, 0x3d, 0x80, 0x03, 0x25, 0xbe,
  0x7e, 0x94, 0xcc, 0xbe, 0x8a, 0xcf, 0x4f, 0xbe, 0x82, 0xfe, 0x1f, 0xbe,
  0x14, 0xc1, 0xc0, 0xbe, 0x6f, 0x35, 0xeb, 0xbe, 0xa4, 0xba, 0x0a, 0x3b,
  0x3c, 0x4f, 0x5e, 0xbe, 0x5e, 0x12, 0x9f, 0x3d, 0xf9, 0x67, 0x1a, 0xbe,
  0x3c, 0xa6, 0x56, 0xbe, 0x94, 0x85, 0x35, 0xbe, 0x52, 0xb3, 0x11, 0xbe,
  0x6f, 0x20, 0xb1, 0x3d, 0xc7, 0x95, 0x55, 0xbe, 0x3b, 0x96, 0x89, 0x3e,
  0xb6, 0xe8, 0x05, 0xbc, 0x29, 0x8c, 0x6f, 0xbe, 0xd8, 0x66, 0xb2, 0x39,
  0x05, 0x99, 0x8b, 0x3d, 0x6a, 0xcd, 0x12, 0x3e, 0x28, 0xe6, 0x7c, 0xbe,
  0x51, 0x74, 0x7c, 0xbe, 0x58, 0x52, 0xee, 0x3c, 0xec, 0x80, 0xe7, 0x3d,
  0x9a, 0x23, 0xf4, 0x3d, 0x08, 0x54, 0xf8, 0xbd, 0xec, 0x6f, 0x63, 0xbe,
  0x19, 0x30, 0x31, 0xbe, 0xfb, 0x7d, 0x82, 0x3d, 0x56, 0x3a, 0x1c, 0xbe,
  0x4f, 0x0d, 0x98, 0x3d, 0xc1, 0xae, 0x83, 0xbe, 0xee, 0x18, 0xb8, 0xbd,
  0xcd, 0xe3, 0xd1, 0xbe, 0x1e, 0xe9, 0x02, 0xbc, 0x8f, 0x55, 0x6a, 0x3d,
  0xfc, 0xf7, 0x9b, 0x3d, 0x32, 0x1e, 0xb6, 0xbc, 0xdb, 0x85, 0xb8, 0xbe,
  0xaf, 0xd1, 0x76, 0xbd, 0x1d, 0x1d, 0xb7, 0x3d, 0xad, 0xa3, 0x4d, 0x3d,
  0xa4, 0xf3, 0x0a, 0xbe, 0x1e, 0xc5, 0x48, 0x3e, 0x0b, 0xb1, 0xdb, 0xbc,
  0x66, 0xfd, 0xff, 0xff, 0x10, 0x00, 0x00, 0x00, 0x07, 0x00, 0x00, 0x00,
  0x14, 0x00, 0x00, 0x00, 0x2c, 0x00, 0x00, 0x00, 0x02, 0x00, 0x00, 0x00,
  0x10, 0x00, 0x00, 0x00, 0x70, 0x00, 0x00, 0x00, 0x17, 0x00, 0x00, 0x00,
  0x73, 0x65, 0x71, 0x75, 0x65, 0x6e, 0x74, 0x69, 0x61, 0x6c, 0x2f, 0x64,
  0x65, 0x6e, 0x73, 0x65, 0x2f, 0x4d, 0x61, 0x74, 0x4d, 0x75, 0x6c, 0x00,
  0xd0, 0xfc, 0xff, 0xff, 0xda, 0xfd, 0xff, 0xff, 0x04, 0x00, 0x00, 0x00,
  0x08, 0x00, 0x00, 0x00, 0xff, 0xff, 0xff, 0xff, 0x70, 0x00, 0x00, 0x00,
  0x00, 0x00, 0x0e, 0x00, 0x18, 0x00, 0x08, 0x00, 0x07, 0x00, 0x0c, 0x00,
  0x10, 0x00, 0x14, 0x00, 0x0e, 0x00, 0x00, 0x00, 0x00, 0x00, 0x00, 0x02,
  0x10, 0x00, 0x00, 0x00, 0x06, 0x00, 0x00, 0x00, 0x10, 0x00, 0x00, 0x00,
  0x2c, 0x00, 0x00, 0x00, 0x01, 0x00, 0x00, 0x00, 0x02, 0x00, 0x00, 0x00,
  0x18, 0x00, 0x00, 0x00, 0x73, 0x65, 0x71, 0x75, 0x65, 0x6e, 0x74, 0x69,
  0x61, 0x6c, 0x2f, 0x66, 0x6c, 0x61, 0x74, 0x74, 0x65, 0x6e, 0x2f, 0x43,
  0x6f, 0x6e, 0x73, 0x74, 0x00, 0x00, 0x00, 0x00, 0x38, 0xfd, 0xff, 0xff,
  0x42, 0xfe, 0xff, 0xff, 0x04, 0x00, 0x00, 0x00, 0x0c, 0x00, 0x00, 0x00,
  0x3a, 0xdd, 0xee, 0xbf, 0xcd, 0x38, 0x71, 0xbf, 0xc4, 0x1a, 0xc5, 0x3f,
  0x26, 0xfe, 0xff, 0xff, 0x10, 0x00, 0x00, 0x00, 0x05, 0x00, 0x00, 0x00,
  0x10, 0x00, 0x00, 0x00, 0x44, 0x00, 0x00, 0x00, 0x01, 0x00, 0x00, 0x00,
  0x03, 0x00, 0x00, 0x00, 0x32, 0x00, 0x00, 0x00, 0x73, 0x65, 0x71, 0x75,
  0x65, 0x6e, 0x74, 0x69, 0x61, 0x6c, 0x2f, 0x64, 0x65, 0x6e, 0x73, 0x65,
  0x5f, 0x31, 0x2f, 0x42, 0x69, 0x61, 0x73, 0x41, 0x64, 0x64, 0x2f, 0x52,
  0x65, 0x61, 0x64, 0x56, 0x61, 0x72, 0x69, 0x61, 0x62, 0x6c, 0x65, 0x4f,
  0x70, 0x2f, 0x72, 0x65, 0x73, 0x6f, 0x75, 0x72, 0x63, 0x65, 0x00, 0x00,
  0xa8, 0xfd, 0xff, 0xff, 0xb2, 0xfe, 0xff, 0xff, 0x04, 0x00, 0x00, 0x00,
  0x40, 0x00, 0x00, 0x00, 0x27, 0xdf, 0xec, 0xbe, 0x3a, 0xff, 0x82, 0xbf,
  0xe9, 0xea, 0x15, 0xbe, 0xd2, 0x3b, 0x64, 0xbe, 0x4d, 0x60, 0xc0, 0x3c,
  0x28, 0x7b, 0xb0, 0xbe, 0xd4, 0x1a, 0xfa, 0xbe, 0xdc, 0x63, 0x81, 0x3e,
  0xfa, 0xc4, 0xd8, 0xbf, 0x84, 0xab, 0xd1, 0xbe, 0x87, 0x4e, 0x14, 0xbd,
  0x5c, 0x6c, 0x6b, 0xbf, 0xc3, 0x9b, 0xaf, 0xbf, 0x7c, 0x6d, 0x5c, 0x3f,
  0x16, 0xde, 0xc6, 0xbe, 0x7a, 0x25, 0x97, 0xbe, 0xca, 0xfe, 0xff, 0xff,
  0x10, 0x00, 0x00, 0x00, 0x04, 0x00, 0x00, 0x00, 0x10, 0x00, 0x00, 0x00,
  0x44, 0x00, 0x00, 0x00, 0x01, 0x00, 0x00, 0x00, 0x10, 0x00, 0x00, 0x00,
  0x30, 0x00, 0x00, 0x00, 0x73, 0x65, 0x71, 0x75, 0x65, 0x6e, 0x74, 0x69,
  0x61, 0x6c, 0x2f, 0x64, 0x65, 0x6e, 0x73, 0x65, 0x2f, 0x42, 0x69, 0x61,
  0x73, 0x41, 0x64, 0x64, 0x2f, 0x52, 0x65, 0x61, 0x64, 0x56, 0x61, 0x72,
  0x69, 0x61, 0x62, 0x6c, 0x65, 0x4f, 0x70, 0x2f, 0x72, 0x65, 0x73, 0x6f,
  0x75, 0x72, 0x63, 0x65, 0x00, 0x00, 0x00, 0x00, 0x4c, 0xfe, 0xff, 0xff,
  0x56, 0xff, 0xff, 0xff, 0x04, 0x00, 0x00, 0x00, 0x40, 0x00, 0x00, 0x00,
  0x8a, 0x8a, 0xcc, 0x3f, 0x72, 0x11, 0x36, 0xbf, 0xcb, 0xd8, 0x03, 0x40,
  0x5a, 0xac, 0x0d, 0xc0, 0xf2, 0xe4, 0x6a, 0x3e, 0x2f, 0x40, 0x20, 0x40,
  0xd7, 0x95, 0xd8, 0xbf, 0xc1, 0x88, 0x81, 0xbf, 0x62, 0xfe, 0xbb, 0xbf,
  0x73, 0xc7, 0x8e, 0x3d, 0x7e, 0x32, 0x0f, 0xbf, 0x09, 0x86, 0x25, 0xbf,
  0x10, 0xee, 0x86, 0xbf, 0x6f, 0xf5, 0xf1, 0x3e, 0x25, 0x41, 0x03, 0x3e,
  0x23, 0x31, 0x5c, 0xbe, 0x6e, 0xff, 0xff, 0xff, 0x10, 0x00, 0x00, 0x00,
  0x03, 0x00, 0x00, 0x00, 0x10, 0x00, 0x00, 0x00, 0x48, 0x00, 0x00, 0x00,
  0x01, 0x00, 0x00, 0x00, 0x10, 0x00, 0x00, 0x00, 0x33, 0x00, 0x00, 0x00,
  0x73, 0x65, 0x71, 0x75, 0x65, 0x6e, 0x74, 0x69, 0x61, 0x6c, 0x2f, 0x63,
  0x6f, 0x6e, 0x76, 0x32, 0x64, 0x5f, 0x31, 0x2f, 0x42, 0x69, 0x61, 0x73,
  0x41, 0x64, 0x64, 0x2f, 0x52, 0x65, 0x61, 0x64, 0x56, 0x61, 0x72, 0x69,
  0x61, 0x62, 0x6c, 0x65, 0x4f, 0x70, 0x2f, 0x72, 0x65, 0x73, 0x6f, 0x75,
  0x72, 0x63, 0x65, 0x00, 0x04, 0x00, 0x06, 0x00, 0x04, 0x00, 0x00, 0x00,
  0x00, 0x00, 0x06, 0x00, 0x08, 0x00, 0x04, 0x00, 0x06, 0x00, 0x00, 0x00,
  0x04, 0x00, 0x00, 0x00, 0x20, 0x00, 0x00, 0x00, 0xaa, 0x01, 0x39, 0xbf,
  0x31, 0xb7, 0x10, 0xc0, 0xe0, 0x53, 0x56, 0xbe, 0x8f, 0xc1, 0x1c, 0xc0,
  0x74, 0x76, 0x13, 0xc0, 0x11, 0x38, 0xf6, 0xbe, 0x22, 0x90, 0x0f, 0xc0,
  0x1d, 0xf1, 0x30, 0xc0, 0x00, 0x00, 0x0e, 0x00, 0x14, 0x00, 0x04, 0x00,
  0x00, 0x00, 0x08, 0x00, 0x0c, 0x00, 0x10, 0x00, 0x0e, 0x00, 0x00, 0x00,
  0x10, 0x00, 0x00, 0x00, 0x02, 0x00, 0x00, 0x00, 0x10, 0x00, 0x00, 0x00,
  0x44, 0x00, 0x00, 0x00, 0x01, 0x00, 0x00, 0x00, 0x08, 0x00, 0x00, 0x00,
  0x31, 0x00, 0x00, 0x00, 0x73, 0x65, 0x71, 0x75, 0x65, 0x6e, 0x74, 0x69,
  0x61, 0x6c, 0x2f, 0x63, 0x6f, 0x6e, 0x76, 0x32, 0x64, 0x2f, 0x42, 0x69,
  0x61, 0x73, 0x41, 0x64, 0x64, 0x2f, 0x52, 0x65, 0x61, 0x64, 0x56, 0x61,
  0x72, 0x69, 0x61, 0x62, 0x6c, 0x65, 0x4f, 0x70, 0x2f, 0x72, 0x65, 0x73,
  0x6f, 0x75, 0x72, 0x63, 0x65, 0x00, 0x00, 0x00, 0x90, 0xff, 0xff, 0xff,
  0x14, 0x00, 0x18, 0x00, 0x04, 0x00, 0x00, 0x00, 0x08, 0x00, 0x0c, 0x00,
  0x10, 0x00, 0x00, 0x00, 0x00, 0x00, 0x14, 0x00, 0x14, 0x00, 0x00, 0x00,
  0x14, 0x00, 0x00, 0x00, 0x01, 0x00, 0x00, 0x00, 0x20, 0x00, 0x00, 0x00,
  0x44, 0x00, 0x00, 0x00, 0x2c, 0x00, 0x00, 0x00, 0x04, 0x00, 0x00, 0x00,
  0x01, 0x00, 0x00, 0x00, 0x40, 0x00, 0x00, 0x00, 0x03, 0x00, 0x00, 0x00,
  0x01, 0x00, 0x00, 0x00, 0x0c, 0x00, 0x00, 0x00, 0x63, 0x6f, 0x6e, 0x76,
  0x32, 0x64, 0x5f, 0x69, 0x6e, 0x70, 0x75, 0x74, 0x00, 0x00, 0x00, 0x00,
  0x04, 0x00, 0x00, 0x00, 0xff, 0xff, 0xff, 0xff, 0x40, 0x00, 0x00, 0x00,
  0x03, 0x00, 0x00, 0x00, 0x01, 0x00, 0x00, 0x00, 0xfc, 0xff, 0xff, 0xff,
  0x04, 0x00, 0x04, 0x00, 0x04, 0x00, 0x00, 0x00
};
unsigned int model_tflite_len = 13052;
// const unsigned char g_magic_wand_model_data[] DATA_ALIGN_ATTRIBUTE = {
//   // Paste the data of the char array in `src/model.cc` here
// };

// unsigned int model_tflite_len = ;// Fill the int in `src/model.cc` here